unsigned char quantized_model_tfl[] = {
  0x1c, 0x00, 0x00, 0x00, 0x54, 0x46, 0x4c, 0x33, 0x14, 0x00, 0x20, 0x00,
  0x1c, 0x00, 0x18, 0x00, 0x14, 0x00, 0x10, 0x00, 0x0c, 0x00, 0x00, 0x00,
  0x08, 0x00, 0x04, 0x00, 0x14, 0x00, 0x00, 0x00, 0x1c, 0x00, 0x00, 0x00,
  0x1c, 0x00, 0x00, 0x00, 0x74, 0x00, 0x00, 0x00, 0x34, 0x2e, 0x00, 0x00,
  0x44, 0x2e, 0x00, 0x00, 0x9c, 0x3d, 0x00, 0x00, 0x03, 0x00, 0x00, 0x00,
  0x00, 0x00, 0x00, 0x00, 0x02, 0x00, 0x00, 0x00, 0x34, 0x00, 0x00, 0x00,
  0x04, 0x00, 0x00, 0x00, 0xdc, 0xff, 0xff, 0xff, 0x12, 0x00, 0x00, 0x00,
  0x04, 0x00, 0x00, 0x00, 0x13, 0x00, 0x00, 0x00, 0x43, 0x4f, 0x4e, 0x56,
  0x45, 0x52, 0x53, 0x49, 0x4f, 0x4e, 0x5f, 0x4d, 0x45, 0x54, 0x41, 0x44,
  0x41, 0x54, 0x41, 0x00, 0x08, 0x00, 0x0c, 0x00, 0x08, 0x00, 0x04, 0x00,
  0x08, 0x00, 0x00, 0x00, 0x11, 0x00, 0x00, 0x00, 0x04, 0x00, 0x00, 0x00,
  0x13, 0x00, 0x00, 0x00, 0x6d, 0x69, 0x6e, 0x5f, 0x72, 0x75, 0x6e, 0x74,
  0x69, 0x6d, 0x65, 0x5f, 0x76, 0x65, 0x72, 0x73, 0x69, 0x6f, 0x6e, 0x00,
  0x13, 0x00, 0x00, 0x00, 0xbc, 0x2d, 0x00, 0x00, 0xb4, 0x2d, 0x00, 0x00,
  0x9c, 0x2d, 0x00, 0x00, 0x64, 0x2d, 0x00, 0x00, 0x54, 0x19, 0x00, 0x00,
  0xc4, 0x18, 0x00, 0x00, 0xb4, 0x06, 0x00, 0x00, 0x64, 0x06, 0x00, 0x00,
  0xd4, 0x01, 0x00, 0x00, 0xa4, 0x01, 0x00, 0x00, 0xbc, 0x00, 0x00, 0x00,
  0xb4, 0x00, 0x00, 0x00, 0xac, 0x00, 0x00, 0x00, 0xa4, 0x00, 0x00, 0x00,
  0x9c, 0x00, 0x00, 0x00, 0x94, 0x00, 0x00, 0x00, 0x8c, 0x00, 0x00, 0x00,
  0x6c, 0x00, 0x00, 0x00, 0x04, 0x00, 0x00, 0x00, 0xf6, 0xd1, 0xff, 0xff,
  0x04, 0x00, 0x00, 0x00, 0x58, 0x00, 0x00, 0x00, 0x0c, 0x00, 0x00, 0x00,
  0x08, 0x00, 0x0e, 0x00, 0x08, 0x00, 0x04, 0x00, 0x08, 0x00, 0x00, 0x00,
  0x10, 0x00, 0x00, 0x00, 0x28, 0x00, 0x00, 0x00, 0x00, 0x00, 0x06, 0x00,
  0x08, 0x00, 0x04, 0x00, 0x06, 0x00, 0x00, 0x00, 0x04, 0x00, 0x00, 0x00,
  0x01, 0x00, 0x00, 0x00, 0xeb, 0x03, 0x00, 0x00, 0x00, 0x00, 0x0a, 0x00,
  0x10, 0x00, 0x0c, 0x00, 0x08, 0x00, 0x04, 0x00, 0x0a, 0x00, 0x00, 0x00,
  0x03, 0x00, 0x00, 0x00, 0x02, 0x00, 0x00, 0x00, 0x04, 0x00, 0x00, 0x00,
  0x06, 0x00, 0x00, 0x00, 0x32, 0x2e, 0x31, 0x34, 0x2e, 0x31, 0x00, 0x00,
  0x5a, 0xd2, 0xff, 0xff, 0x04, 0x00, 0x00, 0x00, 0x10, 0x00, 0x00, 0x00,
  0x31, 0x2e, 0x31, 0x34, 0x2e, 0x30, 0x00, 0x00, 0x00, 0x00, 0x00, 0x00,
  0x00, 0x00, 0x00, 0x00, 0x44, 0xc4, 0xff, 0xff, 0x48, 0xc4, 0xff, 0xff,
  0x4c, 0xc4, 0xff, 0xff, 0x50, 0xc4, 0xff, 0xff, 0x54, 0xc4, 0xff, 0xff,
  0x58, 0xc4, 0xff, 0xff, 0x8e, 0xd2, 0xff, 0xff, 0x04, 0x00, 0x00, 0x00,
  0xd8, 0x00, 0x00, 0x00, 0xdc, 0xfc, 0x21, 0xbd, 0x54, 0xd6, 0xd7, 0x3a,
  0xd6, 0xc4, 0x25, 0xfb, 0xc0, 0x4b, 0xeb, 0xc4, 0x5a, 0x81, 0xd1, 0x34,
  0xe7, 0xc9, 0x36, 0xcb, 0xba, 0x70, 0x8d, 0x16, 0x38, 0x4d, 0x28, 0x64,
  0xfe, 0x11, 0x4f, 0xf8, 0x33, 0x4a, 0x31, 0x7f, 0x69, 0xd7, 0x73, 0x2d,
  0xf1, 0x67, 0x30, 0xdd, 0x6e, 0x16, 0xb4, 0x47, 0x24, 0xa4, 0xc7, 0x03,
  0xa8, 0xd9, 0x69, 0x10, 0x0d, 0x12, 0xa4, 0xb4, 0x0e, 0xd4, 0xbf, 0x7f,
  0x06, 0xe5, 0x61, 0xee, 0x02, 0xc7, 0xd5, 0xed, 0x46, 0xd5, 0xe1, 0x49,
  0xcb, 0xf3, 0xff, 0xa7, 0x4a, 0x37, 0xe5, 0x34, 0x19, 0xb5, 0x52, 0x3b,
  0xe8, 0x7e, 0x46, 0xc4, 0x45, 0x0e, 0xc5, 0x44, 0x02, 0xf1, 0x7f, 0x12,
  0xc1, 0x6e, 0x15, 0xcb, 0xea, 0xf8, 0x81, 0xd3, 0x38, 0xb9, 0xdb, 0x57,
  0xe0, 0xc5, 0xe9, 0xa6, 0xc6, 0x5f, 0xe6, 0xe5, 0x57, 0x03, 0xbf, 0x2a,
  0xbc, 0xcf, 0x64, 0xcf, 0x0d, 0x12, 0xe1, 0xd4, 0x40, 0x6a, 0xc8, 0x4d,
  0x4e, 0xb1, 0x2f, 0xdc, 0xde, 0x4e, 0x24, 0xce, 0x3c, 0x05, 0xca, 0xe9,
  0xde, 0xd9, 0x5c, 0x2f, 0xda, 0x29, 0x21, 0x81, 0xf6, 0xe9, 0xe8, 0x34,
  0x2b, 0xe5, 0xf2, 0xb8, 0xcd, 0x2a, 0xc9, 0xc3, 0x6b, 0xb4, 0xcb, 0x54,
  0xd9, 0xa4, 0x21, 0xce, 0xc5, 0x5e, 0xf4, 0xb2, 0x72, 0xe4, 0x81, 0xce,
  0xab, 0xd5, 0x62, 0xf0, 0xbd, 0x19, 0xd8, 0xed, 0xde, 0xa4, 0xd3, 0x70,
  0xf2, 0xa6, 0x5a, 0xb7, 0x9e, 0x3a, 0x81, 0xe4, 0x41, 0xbf, 0xd5, 0x3c,
  0x97, 0xca, 0x15, 0xbb, 0x72, 0xd3, 0xff, 0xff, 0x04, 0x00, 0x00, 0x00,
  0x20, 0x00, 0x00, 0x00, 0x92, 0x0d, 0x00, 0x00, 0xf8, 0xff, 0xff, 0xff,
  0xad, 0xfe, 0xff, 0xff, 0xb3, 0xff, 0xff, 0xff, 0xb8, 0xff, 0xff, 0xff,
  0xe2, 0xff, 0xff, 0xff, 0x42, 0xff, 0xff, 0xff, 0xcf, 0x10, 0x00, 0x00,
  0x9e, 0xd3, 0xff, 0xff, 0x04, 0x00, 0x00, 0x00, 0x80, 0x04, 0x00, 0x00,
  0x18, 0xed, 0xdd, 0xd7, 0xd0, 0x24, 0x15, 0x17, 0x2a, 0xf1, 0xf9, 0xec,
  0x1b, 0x0a, 0x2c, 0x2c, 0x1e, 0xd2, 0x2a, 0x10, 0x35, 0xf1, 0x3d, 0x08,
  0xf9, 0xe2, 0x1b, 0xff, 0x05, 0x0b, 0x27, 0x1f, 0x3b, 0xfd, 0x5b, 0xcd,
  0x5b, 0xdb, 0x2a, 0x3a, 0x1b, 0x24, 0x66, 0x18, 0x34, 0x0f, 0x65, 0x57,
  0x01, 0x24, 0x3d, 0x25, 0x46, 0xeb, 0x37, 0xff, 0x03, 0x3c, 0x19, 0x3a,
  0x4b, 0xe9, 0x18, 0xf5, 0x14, 0x5c, 0x1f, 0x7f, 0x19, 0xe6, 0x21, 0x17,
  0x06, 0xef, 0xdc, 0x07, 0x27, 0x39, 0x31, 0x2d, 0x1f, 0x08, 0xf3, 0xd5,
  0xfb, 0x36, 0x21, 0xdd, 0x23, 0xd8, 0xc7, 0xfb, 0xe7, 0xdf, 0x04, 0xed,
  0x46, 0x3f, 0x7a, 0x32, 0x1e, 0x60, 0x1a, 0x36, 0x2a, 0x50, 0x40, 0x7f,
  0x4b, 0x4f, 0x4d, 0x4e, 0x21, 0x14, 0x10, 0x66, 0x06, 0xf8, 0x15, 0x5a,
  0x25, 0x17, 0x23, 0x0e, 0x30, 0x32, 0x42, 0xfd, 0x29, 0x72, 0x35, 0x41,
  0x0f, 0x0f, 0x13, 0x10, 0xee, 0x53, 0x14, 0x49, 0xe6, 0xc7, 0xd5, 0x1e,
  0x41, 0x10, 0x16, 0xca, 0x21, 0x08, 0x44, 0x2b, 0x29, 0xb8, 0x2d, 0xbb,
  0xf1, 0x19, 0x5d, 0x5e, 0x2f, 0xe3, 0x06, 0xf2, 0x2f, 0xfb, 0x2f, 0x44,
  0x05, 0xff, 0x23, 0xd8, 0x0b, 0x0e, 0x29, 0x32, 0x35, 0xc2, 0x48, 0xcc,
  0x6e, 0x0b, 0x48, 0x69, 0x25, 0xc8, 0x59, 0xf3, 0x61, 0x06, 0x5f, 0x7f,
  0x18, 0xdf, 0x4b, 0xe0, 0x2d, 0x22, 0x12, 0x55, 0x6e, 0xf9, 0x6b, 0x03,
  0x7f, 0x06, 0x19, 0x49, 0x12, 0x0e, 0x28, 0xfe, 0x5a, 0x2d, 0x5c, 0x79,
  0xf0, 0xe4, 0x05, 0x08, 0xd0, 0x11, 0x0a, 0xe6, 0x26, 0x06, 0xf1, 0xe4,
  0x04, 0x06, 0x42, 0x0c, 0x26, 0x0d, 0x30, 0x16, 0x28, 0xfb, 0x19, 0x29,
  0x23, 0x23, 0x22, 0xf4, 0xff, 0x32, 0x17, 0x15, 0x63, 0xe9, 0x54, 0xe4,
  0x40, 0x0c, 0x34, 0x47, 0x6a, 0x08, 0x5e, 0xfe, 0x70, 0x51, 0x7d, 0x7f,
  0xe0, 0xdb, 0x1b, 0x04, 0xff, 0x07, 0x26, 0x0b, 0x35, 0xe8, 0x4c, 0xdc,
  0x45, 0x0a, 0xf8, 0x1f, 0x2a, 0x1c, 0x60, 0x06, 0x3e, 0x47, 0x6e, 0x73,
  0xfd, 0xf4, 0x10, 0xea, 0xe1, 0x34, 0x17, 0xf8, 0xfc, 0xf8, 0x10, 0xe9,
  0x19, 0x40, 0x35, 0x09, 0xd9, 0xcb, 0xe4, 0xa7, 0xed, 0xee, 0xe2, 0xdd,
  0x41, 0x1e, 0x48, 0xe3, 0x37, 0x47, 0x55, 0x14, 0x34, 0xec, 0x3d, 0xcf,
  0x40, 0x3c, 0x4f, 0x3d, 0xfb, 0xca, 0xfc, 0xce, 0xdf, 0x19, 0x2d, 0x28,
  0x51, 0x0a, 0x46, 0xdf, 0x42, 0x46, 0x44, 0x27, 0x60, 0x33, 0x7f, 0xf5,
  0x65, 0x3b, 0x43, 0x79, 0x34, 0x00, 0x0c, 0xd5, 0x11, 0x26, 0x28, 0x42,
  0x14, 0xb7, 0x40, 0xd5, 0x43, 0xe6, 0x39, 0x6c, 0x71, 0xa2, 0x7d, 0xb0,
  0x7d, 0x2b, 0x69, 0x6a, 0x78, 0xef, 0x6d, 0x81, 0x6f, 0x2b, 0x65, 0x41,
  0x0a, 0xc5, 0x31, 0xb8, 0x56, 0x12, 0x46, 0x5c, 0x56, 0x9e, 0x69, 0x91,
  0x5d, 0x22, 0x2b, 0x50, 0x4d, 0xe3, 0x4e, 0xa1, 0x43, 0x04, 0x35, 0x60,
  0xdb, 0xee, 0xc9, 0xae, 0xe5, 0xda, 0x11, 0x47, 0xf2, 0xb9, 0x06, 0xa1,
  0xe6, 0xbe, 0x1a, 0x2d, 0x31, 0xc7, 0x51, 0xbe, 0x40, 0xbf, 0x0e, 0x0a,
  0xee, 0x2e, 0xfb, 0x5e, 0x43, 0xd5, 0x06, 0xe6, 0xeb, 0x04, 0x25, 0x51,
  0x24, 0xc9, 0xdb, 0x35, 0xd6, 0xd5, 0xe5, 0x0f, 0xdb, 0xb8, 0x16, 0x30,
  0x3f, 0x2b, 0x35, 0x4b, 0x42, 0xea, 0xf7, 0x23, 0x3c, 0x32, 0x11, 0x7f,
  0x4d, 0xcf, 0x0b, 0x0f, 0x16, 0xe8, 0xf4, 0x11, 0x14, 0xf7, 0x14, 0x4a,
  0x2b, 0x33, 0xf0, 0x0f, 0x46, 0x10, 0x5b, 0xf3, 0x2b, 0x4e, 0x3f, 0x77,
  0x46, 0xf2, 0x2c, 0x1d, 0xf4, 0x44, 0x2f, 0x38, 0x1d, 0x18, 0x0f, 0x12,
  0x26, 0x10, 0x35, 0x3a, 0x4b, 0x07, 0x28, 0x02, 0x29, 0x1d, 0xf4, 0x16,
  0x2f, 0xe7, 0x24, 0x2c, 0xfb, 0xe2, 0x14, 0x17, 0x33, 0xf5, 0x01, 0x19,
  0x33, 0x45, 0x2d, 0x63, 0x1f, 0x12, 0x07, 0x05, 0xf0, 0x42, 0xf7, 0x67,
  0x33, 0xe9, 0xf1, 0xfc, 0xe2, 0x1f, 0x20, 0x53, 0x16, 0x0f, 0xf5, 0xf4,
  0xe9, 0x3e, 0xf6, 0x56, 0x42, 0x06, 0x24, 0x1b, 0xd6, 0x55, 0xff, 0x7f,
  0xed, 0xf7, 0xf9, 0xd8, 0xe7, 0x44, 0xf1, 0x3b, 0xe4, 0x13, 0xea, 0xe1,
  0x16, 0xe7, 0x13, 0xdb, 0x67, 0x01, 0x45, 0x31, 0x38, 0xfb, 0x19, 0xe9,
  0x3c, 0xf4, 0x0e, 0x4b, 0x09, 0xf2, 0x24, 0xfc, 0x0a, 0x13, 0x3a, 0x2c,
  0x4f, 0x3a, 0x62, 0x29, 0x35, 0x35, 0x48, 0x4f, 0x35, 0x59, 0x11, 0x75,
  0x1d, 0x30, 0x48, 0x25, 0xee, 0x26, 0xee, 0x62, 0xe6, 0xd7, 0xd1, 0xe1,
  0x0a, 0x05, 0xc2, 0x1a, 0x25, 0x2d, 0x21, 0x24, 0xc6, 0x33, 0xe1, 0x7f,
  0xe2, 0x17, 0xc7, 0xef, 0xe1, 0x46, 0x06, 0x59, 0xdb, 0xf3, 0xa1, 0xc2,
  0xe9, 0xb4, 0xd8, 0xad, 0xcb, 0xbd, 0x81, 0x9f, 0x42, 0x24, 0x34, 0x12,
  0x32, 0x37, 0x36, 0x4e, 0x32, 0x0d, 0x23, 0x0b, 0x57, 0x16, 0x55, 0x50,
  0xe3, 0xbd, 0xee, 0xa7, 0x04, 0x95, 0xfd, 0xb0, 0x44, 0x1f, 0x3e, 0x22,
  0x64, 0x39, 0x58, 0x31, 0x07, 0x1c, 0xfa, 0xf1, 0x00, 0x32, 0x40, 0x2b,
  0x09, 0xed, 0x1b, 0xee, 0x22, 0x03, 0xe5, 0xc5, 0x03, 0x3a, 0x3f, 0x1c,
  0x42, 0x18, 0x3c, 0x36, 0xa7, 0xcc, 0x9a, 0xda, 0x9c, 0x01, 0xd0, 0x08,
  0x39, 0xfd, 0x11, 0x35, 0x43, 0x20, 0x22, 0x5e, 0xe4, 0xcf, 0xc1, 0xe1,
  0xc0, 0xc1, 0xe3, 0x08, 0x38, 0xf5, 0x33, 0x06, 0x42, 0xb6, 0xfe, 0x2d,
  0x21, 0x0a, 0x1e, 0x22, 0x23, 0x23, 0x38, 0x51, 0xf4, 0x81, 0x99, 0xac,
  0x9a, 0xb3, 0xbd, 0xfe, 0x4b, 0x00, 0x43, 0x10, 0x39, 0xba, 0xf0, 0x14,
  0x34, 0x12, 0x19, 0x26, 0x1d, 0x14, 0x31, 0x38, 0xdb, 0x9c, 0xa5, 0xb5,
  0xf9, 0xcb, 0xea, 0x04, 0x37, 0x0b, 0x54, 0x0a, 0x1a, 0x01, 0xfd, 0xf5,
  0xe6, 0x1e, 0xf1, 0x0c, 0x04, 0xce, 0x13, 0xe0, 0x07, 0x30, 0x1d, 0x6f,
  0x31, 0xe8, 0xfd, 0x11, 0x0d, 0x2c, 0xfd, 0x7c, 0x2d, 0xef, 0x0c, 0x30,
  0x17, 0xee, 0x49, 0x0b, 0x38, 0xfb, 0x03, 0xf6, 0x0d, 0x4a, 0x2b, 0x7f,
  0x51, 0x08, 0x43, 0x0f, 0xc4, 0x43, 0xf7, 0x61, 0x0a, 0xde, 0xd2, 0xe0,
  0x33, 0xd5, 0x1c, 0xe1, 0x73, 0x47, 0x4b, 0x37, 0x29, 0x22, 0x42, 0x30,
  0x17, 0x23, 0x11, 0x2f, 0xfd, 0x1c, 0x01, 0x3a, 0x03, 0x0f, 0x1a, 0xf8,
  0x4d, 0x15, 0x57, 0x1f, 0x4d, 0x5c, 0x2e, 0x17, 0x35, 0x12, 0x20, 0xda,
  0x1d, 0x4f, 0x5c, 0x38, 0x1f, 0xe2, 0x14, 0xdf, 0x57, 0x27, 0x15, 0x04,
  0x64, 0xf6, 0x3d, 0x01, 0x7f, 0x78, 0x48, 0x3f, 0x02, 0xea, 0x14, 0xd8,
  0x32, 0x57, 0x46, 0x4e, 0x18, 0xee, 0x16, 0xce, 0x1e, 0x39, 0xf0, 0x09,
  0x0e, 0x3f, 0x2b, 0x21, 0x60, 0x6d, 0x42, 0x2f, 0xed, 0xfe, 0x12, 0xff,
  0x12, 0x15, 0xff, 0xf7, 0x08, 0x2f, 0xed, 0x12, 0xe2, 0x16, 0xec, 0xcf,
  0x44, 0x1d, 0x58, 0x3f, 0x2d, 0x1b, 0x36, 0x3b, 0xfe, 0xf4, 0x12, 0xcd,
  0x03, 0x19, 0x73, 0x5d, 0x42, 0xd0, 0x05, 0xd2, 0x58, 0x34, 0xfc, 0x04,
  0x21, 0x40, 0x56, 0x54, 0x70, 0x04, 0x2a, 0x30, 0xfe, 0x53, 0x4d, 0x36,
  0x70, 0x47, 0x57, 0x65, 0x09, 0x24, 0x3a, 0x28, 0x19, 0x29, 0x00, 0x0f,
  0xfd, 0x60, 0x44, 0x7f, 0x27, 0x36, 0xfd, 0x0d, 0xf2, 0x0b, 0xe8, 0x01,
  0xde, 0xe2, 0xce, 0xed, 0xbc, 0xed, 0xdf, 0xe1, 0xc3, 0x07, 0xaf, 0xa4,
  0xf7, 0x35, 0xe5, 0x47, 0xeb, 0x25, 0x16, 0xfb, 0xfb, 0x2a, 0x38, 0x54,
  0x2b, 0x0e, 0x06, 0xf1, 0xde, 0x46, 0xdf, 0x5a, 0x08, 0xe8, 0x19, 0x2a,
  0x13, 0x27, 0x3e, 0x48, 0x2a, 0x3b, 0x05, 0x0f, 0x13, 0x4d, 0x06, 0x7e,
  0x41, 0x05, 0x05, 0x00, 0xeb, 0x44, 0x00, 0x7f, 0xf4, 0x0a, 0x0f, 0x20,
  0x05, 0x2d, 0xe6, 0x40, 0xea, 0x4e, 0x26, 0xf3, 0xd6, 0x2b, 0xff, 0x38,
  0xd8, 0xe0, 0xd0, 0xf3, 0x03, 0x34, 0x15, 0x34, 0xed, 0xde, 0xd8, 0x18,
  0x0f, 0xe7, 0x10, 0xe8, 0x24, 0x24, 0x10, 0x24, 0x0e, 0xdb, 0x1a, 0xca,
  0x1e, 0x36, 0x51, 0x11, 0x06, 0xc0, 0x07, 0xf5, 0xfe, 0x27, 0x07, 0x10,
  0x31, 0x08, 0x35, 0xc1, 0x25, 0x3c, 0x49, 0x4b, 0x40, 0x09, 0x7f, 0xd4,
  0x5d, 0x41, 0x52, 0x65, 0x0f, 0xf2, 0x39, 0xe0, 0x12, 0x3b, 0x67, 0x48,
  0xf8, 0xeb, 0x3e, 0xe8, 0x0e, 0x46, 0x1f, 0xfc, 0x03, 0x33, 0x3c, 0x27,
  0x22, 0x28, 0x09, 0x38, 0x0d, 0x17, 0x30, 0xd9, 0xf3, 0xff, 0xf7, 0x22,
  0x2a, 0xd8, 0xff, 0xff, 0x04, 0x00, 0x00, 0x00, 0x40, 0x00, 0x00, 0x00,
  0x00, 0xf9, 0xff, 0xff, 0x99, 0xf3, 0xff, 0xff, 0x5a, 0x02, 0x00, 0x00,
  0x27, 0xf9, 0xff, 0xff, 0x1b, 0xfa, 0xff, 0xff, 0xff, 0x0d, 0x00, 0x00,
  0x45, 0xf8, 0xff, 0xff, 0xe0, 0xff, 0xff, 0xff, 0x2c, 0xfc, 0xff, 0xff,
  0x9a, 0xfc, 0xff, 0xff, 0xa5, 0x0e, 0x00, 0x00, 0x2c, 0xfc, 0xff, 0xff,
  0x10, 0xf6, 0xff, 0xff, 0x43, 0xf8, 0xff, 0xff, 0x6c, 0xff, 0xff, 0xff,
  0x43, 0xf8, 0xff, 0xff, 0x76, 0xd8, 0xff, 0xff, 0x04, 0x00, 0x00, 0x00,
  0x00, 0x12, 0x00, 0x00, 0xd9, 0xfa, 0xe6, 0x12, 0x13, 0xb7, 0x09, 0xea,
  0xd7, 0xd0, 0x94, 0x0a, 0xfa, 0xec, 0xfc, 0xdc, 0x02, 0x0f, 0xf0, 0xf4,
  0x06, 0xd4, 0x13, 0x1e, 0x12, 0x0b, 0x97, 0x0b, 0x1e, 0x04, 0xf1, 0x0c,
  0xff, 0x12, 0xd5, 0xd0, 0x03, 0xf5, 0x15, 0x03, 0x27, 0xda, 0xb2, 0xfe,
  0xfe, 0xf9, 0x15, 0x15, 0x04, 0x08, 0x09, 0x23, 0xea, 0xff, 0xf5, 0xee,
  0x06, 0x43, 0x81, 0x14, 0xf3, 0xf3, 0x14, 0x2f, 0x11, 0x2b, 0xec, 0x0b,
  0x09, 0xe8, 0xf9, 0x25, 0x1c, 0xe8, 0x97, 0x09, 0x11, 0x3f, 0x25, 0x02,
  0x0d, 0x20, 0x23, 0x27, 0x06, 0xf9, 0x0f, 0xfa, 0xf3, 0x94, 0xb0, 0x0b,
  0x15, 0xee, 0x2c, 0x00, 0x0a, 0x17, 0x23, 0x26, 0x01, 0xc2, 0xf6, 0xeb,
  0xeb, 0x05, 0xb5, 0xf0, 0x16, 0xe3, 0xf4, 0x1f, 0xfe, 0x1d, 0x15, 0x14,
  0x0d, 0xf2, 0x22, 0xee, 0x16, 0xf7, 0xc4, 0xe6, 0x26, 0x1b, 0x14, 0x1a,
  0x3a, 0x0c, 0x2c, 0x22, 0x0b, 0x2a, 0x15, 0x2c, 0xfc, 0xd7, 0xe4, 0x38,
  0xf8, 0xe6, 0x17, 0x07, 0x01, 0x2a, 0x08, 0xf0, 0xef, 0x02, 0x32, 0x0e,
  0x24, 0xf6, 0x41, 0xf8, 0x18, 0xfa, 0x13, 0xe4, 0x3d, 0xfc, 0x07, 0xf7,
  0xdf, 0x17, 0xfd, 0x28, 0x21, 0xe9, 0x26, 0xe8, 0xe3, 0xfb, 0x00, 0x17,
  0xfb, 0x1c, 0xe4, 0xf1, 0xe3, 0x1b, 0xe7, 0x28, 0x08, 0xd5, 0x0f, 0xf4,
  0x10, 0xfe, 0x18, 0x08, 0x32, 0x32, 0x05, 0xf1, 0xdb, 0xe5, 0x20, 0x52,
  0x56, 0x2c, 0xde, 0x3e, 0xeb, 0x03, 0x57, 0x0a, 0x04, 0x18, 0xb1, 0xe7,
  0x81, 0xcb, 0x24, 0x41, 0x41, 0xed, 0x25, 0x44, 0xdf, 0x34, 0x74, 0xc9,
  0x09, 0x0d, 0x03, 0x06, 0x06, 0xf8, 0x3d, 0x32, 0x15, 0xc4, 0xfc, 0x12,
  0x08, 0x01, 0x35, 0x17, 0xc0, 0x07, 0xcb, 0xd7, 0xdc, 0xf7, 0xfb, 0x21,
  0x06, 0xa5, 0x2c, 0x0b, 0xd6, 0xf9, 0x22, 0xd1, 0xbb, 0xd4, 0xd0, 0xd7,
  0xdd, 0xc0, 0xf6, 0xe0, 0xb9, 0xd1, 0x1a, 0x12, 0xbd, 0xcc, 0xfb, 0x89,
  0xcd, 0xee, 0x23, 0x0d, 0x2d, 0x10, 0x06, 0xdc, 0xda, 0xda, 0x3e, 0x0f,
  0xdd, 0xcc, 0x04, 0xf8, 0xf3, 0xf4, 0x1f, 0x1c, 0x00, 0x2d, 0x04, 0x13,
  0x02, 0x10, 0x36, 0x10, 0xea, 0xf3, 0xec, 0x12, 0x11, 0x2a, 0x11, 0x1e,
  0x01, 0xf9, 0x2e, 0x09, 0x3c, 0x21, 0x21, 0x13, 0x11, 0x33, 0x1d, 0x22,
  0xc6, 0x05, 0xd7, 0xc5, 0xca, 0xe7, 0xef, 0xf7, 0xff, 0xf4, 0xf8, 0xd2,
  0xf5, 0x25, 0x16, 0xfe, 0xee, 0xe9, 0x2b, 0x0c, 0x0d, 0x15, 0x18, 0xf1,
  0x03, 0x54, 0x57, 0xf0, 0xfb, 0xca, 0xea, 0x0f, 0xbd, 0xd5, 0xed, 0xdf,
  0xfb, 0xf2, 0x23, 0x09, 0xfb, 0x1b, 0x40, 0xfd, 0xf8, 0xd9, 0x0b, 0xea,
  0xea, 0xcf, 0xcf, 0xd5, 0xa3, 0xd5, 0xd7, 0xba, 0xb5, 0x81, 0xee, 0xea,
  0xc4, 0xe1, 0xf8, 0xc2, 0xff, 0xeb, 0xee, 0x04, 0x03, 0x07, 0xf5, 0xec,
  0xfc, 0x01, 0x37, 0xfa, 0x07, 0xec, 0xeb, 0x0a, 0x2d, 0xde, 0x2c, 0x20,
  0xf7, 0x42, 0xf5, 0xe9, 0xfe, 0x00, 0x7f, 0xf3, 0xd8, 0xea, 0xfb, 0x14,
  0x12, 0xee, 0x11, 0xe2, 0x10, 0xeb, 0x05, 0xf8, 0x14, 0xf8, 0x27, 0xff,
  0x01, 0x15, 0x0f, 0x25, 0x0e, 0x0a, 0x18, 0x00, 0x10, 0x09, 0xf9, 0xf2,
  0xff, 0x1a, 0x2c, 0xfe, 0x09, 0xeb, 0xed, 0x03, 0xff, 0x00, 0x02, 0x16,
  0xd2, 0x18, 0xe5, 0xfc, 0x01, 0x1e, 0x20, 0x07, 0x02, 0xf1, 0xf9, 0xed,
  0x01, 0x20, 0x06, 0xf8, 0x19, 0x04, 0x0b, 0x19, 0x13, 0xda, 0x10, 0x02,
  0x15, 0xfe, 0x02, 0x06, 0x01, 0xff, 0x0d, 0x09, 0x17, 0x12, 0x00, 0xf9,
  0x0e, 0x35, 0x37, 0x11, 0x10, 0x0d, 0x06, 0x17, 0xbd, 0x96, 0xf8, 0xec,
  0xb2, 0x06, 0xb4, 0x81, 0xbd, 0x98, 0x20, 0xb7, 0x84, 0x8c, 0x87, 0x93,
  0xef, 0xde, 0x0f, 0xf9, 0x11, 0x29, 0xf9, 0xe3, 0xe7, 0x0a, 0x36, 0xff,
  0xdc, 0xd5, 0xe4, 0xef, 0xed, 0xfa, 0xf7, 0xf2, 0xfd, 0x15, 0x1a, 0xfc,
  0xfe, 0xf6, 0x35, 0x16, 0x0e, 0x25, 0x02, 0xf4, 0x11, 0xda, 0x26, 0x25,
  0xf6, 0x37, 0xe9, 0xcb, 0xcf, 0x1a, 0x4c, 0xe9, 0xcd, 0xc3, 0xd7, 0x07,
  0x29, 0x15, 0x2f, 0x19, 0x05, 0x32, 0x15, 0x15, 0x1e, 0x16, 0x2c, 0x01,
  0x2f, 0x07, 0xf7, 0x0d, 0xfa, 0xf6, 0x3c, 0x52, 0x0b, 0x29, 0x10, 0xdb,
  0xbe, 0xff, 0xf8, 0x22, 0xfa, 0xf7, 0xf6, 0x2c, 0x25, 0x23, 0x34, 0x18,
  0x23, 0x2c, 0x12, 0xf0, 0x15, 0xf3, 0xf4, 0x21, 0x2a, 0x35, 0xee, 0x1b,
  0x0a, 0x20, 0x40, 0x05, 0x05, 0x4b, 0xff, 0x20, 0x07, 0x15, 0x1e, 0x0b,
  0x20, 0x1d, 0x21, 0x32, 0xf6, 0x08, 0x06, 0xee, 0x2c, 0x58, 0xd8, 0xfb,
  0x23, 0x7f, 0x0b, 0x0e, 0x12, 0x03, 0xdc, 0x31, 0xf7, 0xff, 0xf5, 0xcf,
  0x90, 0xe0, 0xe6, 0x07, 0xf0, 0xab, 0xca, 0xd7, 0xde, 0xdb, 0xf7, 0xd3,
  0x3b, 0x23, 0x04, 0x01, 0xe6, 0xd5, 0x39, 0x37, 0x26, 0x11, 0x23, 0xf2,
  0x1a, 0xed, 0x0a, 0xef, 0x06, 0xde, 0xea, 0xca, 0x01, 0xea, 0xe0, 0xf7,
  0xdb, 0xde, 0x29, 0xe4, 0x26, 0x32, 0x12, 0xfa, 0xfb, 0xfe, 0xf7, 0x0a,
  0x05, 0xab, 0xfe, 0xe2, 0xc4, 0xf8, 0xb5, 0xf1, 0xc1, 0xd0, 0xd7, 0xef,
  0x13, 0x33, 0xda, 0x25, 0x04, 0xd5, 0x30, 0x04, 0x31, 0x28, 0x45, 0x52,
  0xf3, 0xea, 0x11, 0xe8, 0x36, 0x09, 0x30, 0x18, 0x15, 0xe0, 0x15, 0x41,
  0x13, 0x1f, 0xfe, 0x20, 0x17, 0x1e, 0x23, 0x1d, 0x0b, 0x2f, 0x0c, 0x1a,
  0x00, 0x01, 0x13, 0x3d, 0x4e, 0x16, 0xc7, 0x43, 0x3d, 0x33, 0x55, 0x07,
  0x1c, 0x38, 0xec, 0x07, 0x10, 0x0a, 0x35, 0x1f, 0x23, 0xd9, 0x94, 0x30,
  0x2f, 0x19, 0x49, 0x07, 0xa0, 0xd0, 0xd9, 0xbd, 0xd4, 0x1a, 0xd4, 0xbd,
  0x0a, 0xbb, 0x1f, 0x07, 0xee, 0xfd, 0x18, 0xf4, 0x8e, 0x94, 0xab, 0xc0,
  0x92, 0xe1, 0xc3, 0xdd, 0xb9, 0x8d, 0x0c, 0xe9, 0x91, 0xba, 0xd9, 0x81,
  0xab, 0xef, 0xba, 0xb0, 0xa9, 0xb2, 0xe6, 0xec, 0x00, 0xa6, 0xcc, 0x03,
  0xde, 0x12, 0xdd, 0xa9, 0x1b, 0x13, 0x36, 0x2c, 0x20, 0x0f, 0x10, 0xfa,
  0xdc, 0x4f, 0x2a, 0xfb, 0xd7, 0xf8, 0xf0, 0x3b, 0x39, 0x13, 0x58, 0x39,
  0x3d, 0x2c, 0x1e, 0xe3, 0x1d, 0x36, 0x55, 0x10, 0x28, 0x2c, 0x16, 0x35,
  0x32, 0xf9, 0x2a, 0x1c, 0x19, 0x2d, 0x10, 0x0e, 0xe6, 0xdd, 0x34, 0xee,
  0xec, 0xe4, 0xe7, 0x3d, 0xdb, 0xd2, 0xc1, 0xe9, 0x20, 0x37, 0xda, 0xa1,
  0xc6, 0xdc, 0x2a, 0x0a, 0x97, 0x81, 0xb0, 0xdb, 0xc0, 0xf3, 0xfc, 0xf4,
  0x07, 0x06, 0xb4, 0xc0, 0xb0, 0xc9, 0x3e, 0xa5, 0xc8, 0xcf, 0xce, 0xca,
  0x2d, 0x1d, 0x25, 0x0c, 0x20, 0xd1, 0x01, 0xfa, 0xe8, 0xd3, 0x11, 0x1d,
  0xe4, 0xb4, 0x31, 0x06, 0x30, 0x37, 0x5e, 0x1c, 0x0b, 0x5b, 0x24, 0x07,
  0x39, 0xac, 0x58, 0x0a, 0x4c, 0x0e, 0x0f, 0x45, 0x1a, 0x2e, 0x45, 0x66,
  0x29, 0x59, 0x04, 0x43, 0x22, 0x18, 0x23, 0x49, 0x07, 0x66, 0xf9, 0x3e,
  0x16, 0x0e, 0x44, 0x01, 0x09, 0x24, 0x13, 0x34, 0x3e, 0xfa, 0xf8, 0x2d,
  0x07, 0xf5, 0x0b, 0x3b, 0x5a, 0xf5, 0x05, 0x58, 0xff, 0xff, 0xcf, 0xf4,
  0xe7, 0xe7, 0x38, 0xf4, 0xfd, 0x2f, 0xe0, 0x17, 0x32, 0x4d, 0x06, 0x17,
  0xe5, 0x19, 0x64, 0x47, 0x12, 0x31, 0x44, 0xf0, 0x3a, 0x4b, 0xfb, 0x2f,
  0x09, 0x07, 0xe9, 0xe4, 0xda, 0xb6, 0xfd, 0x3c, 0x00, 0xb3, 0xd9, 0x0f,
  0xda, 0x3a, 0x09, 0xde, 0x07, 0x16, 0x08, 0xd9, 0x26, 0x38, 0x2a, 0x40,
  0x40, 0x10, 0xe2, 0xf9, 0xc4, 0x22, 0x0a, 0xf3, 0x01, 0x37, 0xfc, 0xf3,
  0xa3, 0xb8, 0x40, 0x7f, 0x5b, 0x1d, 0xdb, 0x1e, 0xf7, 0x58, 0x5c, 0xcd,
  0x2e, 0x12, 0xee, 0xd4, 0xf7, 0xd9, 0xf1, 0x11, 0xf7, 0xfe, 0x0c, 0xb8,
  0x11, 0x48, 0xce, 0xe9, 0x06, 0xc9, 0x20, 0x00, 0x37, 0xe8, 0x31, 0x1c,
  0xea, 0x11, 0xdd, 0x46, 0xd0, 0xce, 0xcc, 0xdb, 0x18, 0x1f, 0xd9, 0x11,
  0xb2, 0xe3, 0x46, 0x29, 0x1d, 0x37, 0x89, 0x2c, 0xfd, 0xde, 0x51, 0xe6,
  0xf5, 0xfa, 0xe9, 0xf5, 0xc5, 0xea, 0x15, 0x1e, 0x06, 0x0a, 0xa9, 0xf1,
  0xf0, 0x28, 0x41, 0x06, 0x44, 0x0b, 0xfc, 0xba, 0x11, 0xea, 0x38, 0x38,
  0x6e, 0xb7, 0x0f, 0x24, 0xef, 0xdd, 0xdd, 0xf3, 0xeb, 0x51, 0xf2, 0xe1,
  0xad, 0xa7, 0x68, 0x4c, 0x39, 0x18, 0xc2, 0x58, 0xe7, 0xf5, 0x49, 0xd0,
  0x17, 0x07, 0x00, 0x05, 0xe0, 0xa6, 0x39, 0x18, 0x26, 0x04, 0xbd, 0x0a,
  0x22, 0x41, 0xf0, 0xd7, 0xf5, 0x1b, 0x1d, 0x0c, 0x1b, 0x32, 0x05, 0xf2,
  0x22, 0x22, 0x20, 0x09, 0x1b, 0x04, 0x22, 0x04, 0x07, 0x16, 0xfe, 0xef,
  0x19, 0xdf, 0x23, 0x00, 0xff, 0xcf, 0xfd, 0x08, 0x07, 0xef, 0xfd, 0xfc,
  0xdf, 0x09, 0xf3, 0xe0, 0x1a, 0xfb, 0xe5, 0xdf, 0xd8, 0xec, 0x27, 0xd3,
  0x0a, 0xfb, 0xe9, 0x0b, 0xda, 0xba, 0x09, 0x05, 0xbf, 0x09, 0xdd, 0xbb,
  0xcc, 0x1e, 0x56, 0xc2, 0xd4, 0xc7, 0xbb, 0xd6, 0x16, 0x17, 0x29, 0x00,
  0x12, 0xf9, 0x18, 0x00, 0xea, 0x1c, 0x1b, 0x07, 0x11, 0x0c, 0xf4, 0x06,
  0x1a, 0x0e, 0x21, 0x16, 0xec, 0x10, 0x0c, 0xf3, 0xe5, 0xeb, 0x2a, 0xee,
  0x16, 0x01, 0xe8, 0xea, 0x24, 0xec, 0x27, 0x1a, 0x0b, 0x18, 0xff, 0xdd,
  0xd6, 0x59, 0x50, 0x08, 0xf8, 0xda, 0xe1, 0x00, 0x0f, 0x1b, 0x02, 0xf8,
  0xf9, 0x16, 0x14, 0x16, 0x30, 0x1c, 0x77, 0x09, 0x03, 0x1b, 0x29, 0xf5,
  0xeb, 0xf4, 0xf0, 0xef, 0xc1, 0x06, 0xf4, 0x00, 0xfd, 0x81, 0x2a, 0xf3,
  0xfc, 0x13, 0xeb, 0xd0, 0xe7, 0x4b, 0x27, 0x33, 0x45, 0xf5, 0x2c, 0x00,
  0x19, 0x01, 0xaf, 0x31, 0x07, 0xf9, 0x31, 0x07, 0xe8, 0x2e, 0x1b, 0xc8,
  0x41, 0xa9, 0x1e, 0x12, 0xeb, 0x50, 0x1a, 0x25, 0xde, 0xea, 0x2d, 0x09,
  0x37, 0x14, 0x0e, 0xbd, 0xe1, 0xae, 0xf7, 0x0d, 0xf6, 0x30, 0xa4, 0xd0,
  0x01, 0xf3, 0x20, 0xef, 0xe8, 0xe4, 0xaf, 0x14, 0xad, 0xf0, 0xce, 0xc0,
  0xeb, 0x20, 0xd7, 0xda, 0x16, 0xbf, 0xd7, 0x8a, 0xed, 0x06, 0x02, 0x0d,
  0x5d, 0x27, 0x1e, 0x14, 0x0e, 0x72, 0xef, 0x58, 0x36, 0x1f, 0x32, 0x42,
  0x02, 0xfc, 0x1d, 0x1d, 0x1f, 0xec, 0xd0, 0xc2, 0x06, 0x3d, 0xe1, 0xfc,
  0x18, 0xef, 0xea, 0xfa, 0xae, 0xe5, 0x9e, 0xb6, 0x0d, 0xd7, 0xa0, 0xb9,
  0xa7, 0xc5, 0x60, 0xd3, 0xc6, 0xc7, 0xcc, 0x81, 0x3d, 0x02, 0x2b, 0x4c,
  0xb5, 0x58, 0x00, 0xf5, 0xd7, 0x76, 0x4e, 0x53, 0xb5, 0xe8, 0x1d, 0xcf,
  0xff, 0x2a, 0x07, 0xf3, 0x26, 0x33, 0xec, 0x08, 0x0c, 0x26, 0x02, 0xf9,
  0x4d, 0x51, 0xcf, 0x3b, 0xed, 0x04, 0x24, 0xec, 0x0b, 0x1e, 0xf8, 0x05,
  0xf5, 0xeb, 0xcc, 0x36, 0xf7, 0xe1, 0x26, 0x16, 0x2c, 0x28, 0x2d, 0xe6,
  0x27, 0x3b, 0x1f, 0x1e, 0x3b, 0x20, 0x27, 0x22, 0xfa, 0x15, 0x0f, 0x1d,
  0x04, 0x16, 0xd5, 0xe8, 0x31, 0xc2, 0x19, 0x12, 0x04, 0xf1, 0xcd, 0xfd,
  0xfe, 0x1b, 0x10, 0xfb, 0x1f, 0x06, 0x36, 0x1d, 0x40, 0xeb, 0xf2, 0xe4,
  0xe6, 0xf4, 0xbc, 0x0e, 0x05, 0xcb, 0xd1, 0x14, 0x1b, 0x1b, 0x06, 0x15,
  0x23, 0x17, 0x2e, 0x0f, 0x1a, 0x7f, 0x01, 0x62, 0x04, 0xd7, 0x12, 0x14,
  0xf5, 0x06, 0x34, 0x13, 0x26, 0x24, 0x21, 0x20, 0xe9, 0x1b, 0xcb, 0x06,
  0x01, 0x40, 0xf1, 0x0c, 0xf5, 0xec, 0x05, 0xeb, 0xf6, 0x16, 0xf5, 0x01,
  0x17, 0x33, 0x9b, 0xf8, 0x02, 0x1f, 0xe7, 0x13, 0xfd, 0xe5, 0x25, 0x1c,
  0x0c, 0x1b, 0xe9, 0xf2, 0xfe, 0x22, 0x20, 0x05, 0x17, 0xf2, 0x04, 0xe9,
  0xf7, 0x15, 0xf6, 0xfe, 0x18, 0x16, 0xe0, 0xed, 0xef, 0xd6, 0xf4, 0xdf,
  0x07, 0x3a, 0x02, 0xfe, 0xf4, 0x06, 0xf3, 0x0b, 0xf8, 0xeb, 0x1a, 0xfa,
  0xf5, 0xfb, 0x81, 0xee, 0x19, 0x1e, 0xf2, 0x07, 0x05, 0x04, 0x05, 0x08,
  0x09, 0xe0, 0x1f, 0x14, 0x0a, 0xe0, 0x9c, 0xea, 0xf5, 0x03, 0xe8, 0x05,
  0x14, 0x2c, 0x11, 0x2d, 0xd9, 0xf5, 0xfc, 0x06, 0x1d, 0x2b, 0xe3, 0x27,
  0x19, 0x16, 0x1f, 0x1e, 0x07, 0x1e, 0x13, 0x1a, 0xff, 0xe5, 0x29, 0x1b,
  0x16, 0xda, 0xb3, 0x1c, 0xe1, 0xfa, 0x2d, 0x1b, 0x11, 0x29, 0x1f, 0x06,
  0x08, 0x02, 0x1e, 0x1a, 0xf9, 0x02, 0xad, 0x15, 0x16, 0x11, 0x05, 0x12,
  0x06, 0xee, 0xee, 0xf9, 0x0d, 0xc8, 0x16, 0xff, 0xf7, 0xf5, 0xb5, 0x0b,
  0xed, 0x17, 0x09, 0xf5, 0xf8, 0x0a, 0xdf, 0xeb, 0xd5, 0xd9, 0xf3, 0x2c,
  0x01, 0xe7, 0xe9, 0x14, 0xfe, 0x07, 0x06, 0xe3, 0xf4, 0xdf, 0xe8, 0xd7,
  0xdf, 0x1e, 0xec, 0x25, 0x13, 0x00, 0xe1, 0xf0, 0x27, 0x2d, 0xf1, 0x11,
  0xeb, 0x1d, 0x16, 0xed, 0x2e, 0x06, 0xef, 0xf7, 0x03, 0xf4, 0xae, 0x28,
  0x13, 0x04, 0x16, 0x34, 0x32, 0x29, 0x03, 0xfb, 0x07, 0x2b, 0x32, 0x35,
  0x35, 0x4e, 0x38, 0x17, 0x36, 0x23, 0x26, 0x2a, 0x18, 0xeb, 0x21, 0x20,
  0xe5, 0x32, 0xdf, 0x1c, 0x21, 0xf1, 0x17, 0x0a, 0xed, 0x15, 0xdd, 0x01,
  0xe5, 0x19, 0x20, 0xf8, 0x34, 0xff, 0x2b, 0x1e, 0xf2, 0x9e, 0x43, 0x03,
  0xfb, 0x04, 0xf9, 0x27, 0xde, 0x06, 0x9e, 0xa9, 0x94, 0xeb, 0xf9, 0x27,
  0x10, 0xdd, 0x13, 0xf1, 0xe4, 0x1b, 0x1c, 0x98, 0xcf, 0xd0, 0xcd, 0xca,
  0x81, 0xd7, 0xd7, 0xe3, 0xef, 0xc7, 0x22, 0xe4, 0xae, 0xb6, 0x0a, 0xbd,
  0x09, 0x1b, 0x2b, 0x16, 0x17, 0x0f, 0x15, 0xe5, 0xe0, 0x40, 0x48, 0x00,
  0xfc, 0xf3, 0xea, 0x1a, 0xfb, 0xfd, 0xfc, 0xfd, 0x17, 0xb9, 0x06, 0xdb,
  0xc4, 0x12, 0xef, 0x37, 0xf0, 0xd2, 0x01, 0x08, 0x0c, 0xf9, 0x1a, 0x09,
  0x19, 0xed, 0xfc, 0xff, 0xbc, 0xd5, 0x5a, 0xfb, 0x06, 0xb8, 0xe8, 0xd7,
  0xfd, 0xfd, 0x26, 0x21, 0x31, 0x08, 0x12, 0x00, 0x15, 0x47, 0x09, 0x2a,
  0x18, 0x15, 0x11, 0x15, 0xd2, 0xc2, 0xef, 0xe3, 0xbd, 0x08, 0xd5, 0xeb,
  0xdf, 0x8c, 0x21, 0xc6, 0xcd, 0xc1, 0xd9, 0xc3, 0x3e, 0x23, 0x3b, 0x26,
  0x45, 0x20, 0xfd, 0xe7, 0x0b, 0xec, 0x06, 0x0a, 0xf7, 0xe9, 0x05, 0x28,
  0x0b, 0x0c, 0xef, 0xc7, 0x0e, 0x04, 0xf5, 0x15, 0xf2, 0xfd, 0x2c, 0x06,
  0xf9, 0xed, 0xf7, 0xec, 0x0d, 0xfb, 0x2b, 0x29, 0x0c, 0x03, 0x0f, 0x12,
  0xc3, 0x47, 0x18, 0x05, 0xe7, 0xd3, 0xdc, 0xfb, 0x31, 0x15, 0x40, 0x29,
  0x0f, 0x30, 0x3e, 0x22, 0x31, 0x7f, 0x42, 0x3c, 0x0c, 0x27, 0x3a, 0x3b,
  0xaa, 0xe8, 0xee, 0xde, 0xd5, 0x32, 0xe9, 0xfe, 0xdd, 0xe1, 0x1f, 0xe3,
  0xf5, 0x21, 0xf2, 0xf4, 0xd2, 0x11, 0xd9, 0x05, 0xc5, 0x07, 0x02, 0x1a,
  0x4b, 0x1d, 0x1b, 0xfe, 0x13, 0x2a, 0x35, 0xc7, 0xd4, 0xc4, 0x0d, 0xd7,
  0xcf, 0x2f, 0xcd, 0xe7, 0xfe, 0xff, 0x58, 0xb6, 0x11, 0xf2, 0xc7, 0xe5,
  0x1d, 0xfe, 0x25, 0xff, 0xfb, 0x3f, 0xde, 0xf0, 0xf5, 0xf8, 0x54, 0xbd,
  0xe5, 0xed, 0x95, 0x06, 0xfd, 0x03, 0xfc, 0x18, 0xe9, 0xda, 0x03, 0xeb,
  0xfd, 0x18, 0x91, 0x1d, 0xec, 0xee, 0xe7, 0xe5, 0x25, 0x18, 0x40, 0x19,
  0x67, 0x0d, 0x22, 0xf8, 0x16, 0xd4, 0xae, 0xef, 0x2c, 0xea, 0xdf, 0x55,
  0x2a, 0xef, 0x32, 0x15, 0x12, 0x00, 0xcd, 0xb9, 0xfd, 0x3e, 0xd6, 0xff,
  0xd5, 0xd3, 0xc0, 0x0f, 0x1f, 0x0f, 0x3d, 0x1b, 0x38, 0x48, 0x05, 0xfe,
  0xe5, 0x03, 0x19, 0x0d, 0x06, 0x25, 0x0d, 0x12, 0xd0, 0xdb, 0xfc, 0xf8,
  0x20, 0x28, 0xe4, 0xec, 0xf7, 0xc6, 0xda, 0x1c, 0xf8, 0xf9, 0x0e, 0xea,
  0xd5, 0xee, 0xda, 0xc7, 0x1a, 0xc8, 0xde, 0xde, 0x08, 0xb7, 0xe3, 0xf6,
  0xf8, 0xf8, 0xeb, 0x0f, 0x1a, 0xe8, 0x3d, 0xf1, 0xf0, 0x4a, 0xf8, 0xd0,
  0x15, 0xe4, 0xd2, 0xe0, 0x33, 0x0a, 0xb9, 0x47, 0xf2, 0x36, 0xfb, 0x2f,
  0x0b, 0x22, 0xe7, 0xdf, 0x25, 0xcc, 0x81, 0xd8, 0xf7, 0xf0, 0xfb, 0x54,
  0x09, 0x1b, 0x00, 0x01, 0x3d, 0xc7, 0x29, 0x27, 0x1e, 0xf8, 0xf3, 0x1c,
  0x27, 0xec, 0xfb, 0x1b, 0x4e, 0x28, 0x12, 0x40, 0x17, 0x36, 0x07, 0xec,
  0xe8, 0x60, 0x43, 0xf4, 0xef, 0x08, 0x29, 0xed, 0xd6, 0x17, 0xec, 0xf1,
  0x0b, 0xfd, 0xf7, 0xfc, 0x30, 0xd3, 0xe8, 0x06, 0x33, 0x35, 0x14, 0x02,
  0xf7, 0xde, 0xfa, 0x16, 0x81, 0x0d, 0xc4, 0x00, 0x17, 0x0a, 0xce, 0x13,
  0xb8, 0xca, 0x07, 0x26, 0x59, 0xff, 0x08, 0xfa, 0xe4, 0xf0, 0x75, 0x5f,
  0x34, 0x27, 0xe4, 0x3b, 0x19, 0x5a, 0x2f, 0x41, 0x2f, 0x17, 0x10, 0x20,
  0x45, 0xeb, 0x0a, 0xf4, 0x0e, 0xea, 0xd7, 0xf9, 0x10, 0x16, 0x01, 0x41,
  0xef, 0x49, 0x40, 0x1c, 0x14, 0xb8, 0x5a, 0xfa, 0x17, 0xe2, 0xf7, 0x1a,
  0xfc, 0xe7, 0x16, 0xed, 0xb3, 0xc4, 0xfa, 0xce, 0xcb, 0xcf, 0xd6, 0xd9,
  0xf1, 0xe4, 0xbc, 0x00, 0xcc, 0xcb, 0xe5, 0xca, 0xb6, 0xca, 0xfa, 0x16,
  0x9c, 0xfd, 0xf3, 0x35, 0x3e, 0x98, 0x11, 0x0c, 0x29, 0xc5, 0x14, 0xcc,
  0xfe, 0xf0, 0x29, 0xfb, 0xda, 0x1b, 0x36, 0x22, 0x03, 0x07, 0x40, 0x13,
  0x31, 0x2c, 0x14, 0xe7, 0xe7, 0x05, 0xc3, 0xe9, 0xd1, 0x14, 0xda, 0x1e,
  0x13, 0x1d, 0x3c, 0xf9, 0x0b, 0x0a, 0x09, 0xbc, 0x1e, 0xef, 0x1d, 0x0c,
  0x4d, 0x48, 0xfc, 0x05, 0xf7, 0xff, 0x12, 0xd2, 0x3f, 0x16, 0xc9, 0x1c,
  0x10, 0x1d, 0x43, 0x2f, 0x5f, 0x5a, 0x1e, 0xc7, 0xd8, 0xe4, 0x29, 0xda,
  0xf8, 0xf3, 0xf5, 0x2f, 0xfe, 0xf1, 0x04, 0x05, 0x3c, 0xd8, 0x0a, 0xf9,
  0xfc, 0xc5, 0x08, 0x1b, 0x17, 0xe1, 0xf7, 0x15, 0x18, 0xe2, 0xff, 0xfa,
  0xe3, 0xf2, 0x08, 0x00, 0xfa, 0xdb, 0xeb, 0x1b, 0x07, 0x0a, 0x01, 0xe2,
  0xe5, 0xd7, 0x38, 0x17, 0x0d, 0x3a, 0xd1, 0x04, 0xe6, 0x78, 0x7f, 0xb6,
  0x1e, 0x0f, 0xd7, 0x15, 0x07, 0x08, 0x3d, 0x12, 0x17, 0x1a, 0x15, 0xe7,
  0xc8, 0x15, 0x18, 0xf8, 0x01, 0x1c, 0xe9, 0x33, 0x01, 0xe8, 0xdf, 0x0d,
  0x04, 0xca, 0xf3, 0x16, 0x22, 0xd2, 0xe6, 0x2d, 0xeb, 0xf4, 0x07, 0x0b,
  0xe5, 0x0d, 0xfb, 0x20, 0x2e, 0xe8, 0x15, 0xff, 0x1e, 0xda, 0x24, 0x0f,
  0xe8, 0xf7, 0xf1, 0x16, 0x19, 0x0e, 0x20, 0x1f, 0x34, 0x56, 0x1d, 0xfc,
  0xfb, 0x2b, 0x2e, 0x29, 0x09, 0xee, 0x01, 0xf3, 0x0c, 0x23, 0x06, 0xd5,
  0x17, 0x15, 0xdd, 0x04, 0x40, 0x3e, 0x3b, 0x05, 0x31, 0x0f, 0x04, 0x06,
  0xdd, 0xc9, 0xde, 0xdb, 0xb0, 0x1c, 0xc2, 0xdf, 0x00, 0xa8, 0x0c, 0xe6,
  0xc1, 0xee, 0xe9, 0xd1, 0x0c, 0x22, 0x3c, 0x34, 0x2f, 0x5b, 0x35, 0x12,
  0x32, 0x3d, 0x79, 0x1b, 0x13, 0x09, 0x0a, 0x49, 0xd8, 0x14, 0x10, 0xe6,
  0x44, 0xf0, 0x00, 0xf7, 0xf9, 0xe4, 0x6f, 0x0b, 0x1b, 0xf8, 0xd2, 0x06,
  0xa1, 0xa3, 0xc9, 0xda, 0xd4, 0xfc, 0xd5, 0x83, 0x86, 0x81, 0xe8, 0xcb,
  0x96, 0x8b, 0xc3, 0xa2, 0xfd, 0x03, 0x40, 0x1b, 0x2d, 0x59, 0x0f, 0x11,
  0x14, 0x23, 0x5d, 0x0b, 0xfb, 0xfb, 0xd8, 0x22, 0x01, 0xf9, 0x1c, 0x03,
  0x49, 0x10, 0x04, 0x0d, 0x09, 0x21, 0x24, 0x1b, 0x27, 0x22, 0xdd, 0x2e,
  0xdf, 0xc3, 0xf5, 0x1c, 0xd9, 0x46, 0x98, 0x9d, 0xbc, 0xed, 0x14, 0xa2,
  0xad, 0xc3, 0xc5, 0xfe, 0x1a, 0x3b, 0x2d, 0x01, 0xf6, 0xe5, 0x25, 0x04,
  0x16, 0xe9, 0xb8, 0x1e, 0xff, 0x06, 0xfd, 0xf4, 0x02, 0x1a, 0x11, 0xe9,
  0x31, 0xf4, 0x35, 0x0c, 0x38, 0xfe, 0x35, 0xbe, 0x2d, 0x16, 0xe8, 0x1b,
  0x3d, 0xe8, 0xf6, 0xe5, 0xdb, 0x3a, 0xd8, 0xff, 0x11, 0xf1, 0xe7, 0x01,
  0xf5, 0xc6, 0x1e, 0x16, 0x1b, 0xef, 0xf0, 0x1d, 0xe9, 0xc6, 0x33, 0xf5,
  0xf9, 0x21, 0x81, 0x2e, 0xff, 0xee, 0x17, 0xff, 0x63, 0x08, 0xdd, 0xe1,
  0xdb, 0xad, 0x25, 0x33, 0x3b, 0x0e, 0x94, 0x52, 0x0f, 0xfc, 0x7a, 0xfb,
  0x0e, 0x2b, 0x17, 0x12, 0xd7, 0xd5, 0x12, 0x3f, 0x23, 0xaf, 0xaf, 0x1e,
  0xf2, 0x15, 0x26, 0xf5, 0xda, 0x1b, 0xea, 0x16, 0x06, 0x9d, 0x0a, 0x1f,
  0x0f, 0xd0, 0x9c, 0x4a, 0x1c, 0x1b, 0x40, 0xe2, 0xe5, 0x03, 0xce, 0x15,
  0xcc, 0xcf, 0x10, 0x1b, 0x1b, 0xe6, 0xbe, 0x3b, 0x2b, 0x24, 0x19, 0x10,
  0x09, 0x3c, 0xdc, 0x14, 0xe9, 0x0c, 0x34, 0x1c, 0x21, 0xad, 0xc6, 0x0b,
  0x1b, 0x2c, 0x24, 0x11, 0x02, 0xed, 0xf4, 0xd2, 0x19, 0xf9, 0xdb, 0xc2,
  0xf7, 0xd0, 0x0f, 0xd8, 0xd9, 0xd9, 0x9e, 0x25, 0x24, 0xf6, 0x0b, 0x2c,
  0x0e, 0x3e, 0xd7, 0xe6, 0x05, 0xda, 0x2f, 0xdc, 0xd8, 0xef, 0xe9, 0xfc,
  0x02, 0x32, 0x1c, 0x02, 0x24, 0xff, 0xfe, 0xfa, 0x10, 0xfb, 0x29, 0xe7,
  0xfb, 0x04, 0x0e, 0x13, 0xcb, 0xdf, 0xdf, 0xca, 0xe1, 0xf5, 0xc1, 0xc9,
  0x07, 0xe6, 0x0d, 0xe1, 0xca, 0xe1, 0xd0, 0xbf, 0xda, 0xcf, 0x0d, 0x07,
  0xdb, 0x23, 0xfc, 0xc7, 0xc8, 0xe3, 0x52, 0xcd, 0xbe, 0x81, 0xe8, 0xd8,
  0x42, 0x12, 0x3c, 0x19, 0x33, 0x03, 0x12, 0x25, 0x13, 0x0a, 0x65, 0x15,
  0x05, 0x28, 0x0f, 0x15, 0xfe, 0xe9, 0x18, 0x00, 0x2b, 0x31, 0x07, 0xc8,
  0xd7, 0xef, 0x1b, 0xf1, 0xee, 0xd1, 0xe5, 0xf2, 0x04, 0xf7, 0x24, 0x04,
  0x23, 0x16, 0x09, 0x09, 0xe7, 0x16, 0x32, 0x1e, 0x00, 0xf7, 0x07, 0x26,
  0x21, 0xfb, 0x23, 0x03, 0xf3, 0x10, 0x31, 0x30, 0x01, 0x58, 0x55, 0x27,
  0x28, 0x1b, 0x1d, 0x05, 0xe3, 0xea, 0xf6, 0x00, 0xd6, 0x13, 0x01, 0x31,
  0x29, 0xd5, 0xf7, 0x11, 0xf5, 0x26, 0x08, 0xfc, 0x1c, 0x0e, 0x17, 0x15,
  0xe5, 0x0a, 0x1b, 0xe4, 0x0f, 0x33, 0x48, 0x08, 0xe6, 0xfe, 0x0a, 0x0c,
  0xe2, 0xfc, 0xdf, 0xab, 0xff, 0x24, 0xce, 0xd5, 0xd4, 0x00, 0x4d, 0xd4,
  0xf5, 0xdc, 0xc7, 0x0c, 0xbd, 0xf1, 0xc4, 0xce, 0xdd, 0xff, 0xe8, 0xfd,
  0xde, 0x86, 0x25, 0xd4, 0xf5, 0xf0, 0xf9, 0xd4, 0x39, 0x23, 0x47, 0x37,
  0x1a, 0x0c, 0x26, 0x0a, 0xd4, 0x7f, 0x1b, 0x29, 0x04, 0x11, 0x1b, 0x27,
  0xe0, 0xdf, 0x08, 0xb8, 0xfa, 0x1a, 0xf4, 0xf3, 0xf4, 0xcb, 0x4f, 0xee,
  0x1d, 0x08, 0xd0, 0xd4, 0xee, 0xcb, 0x0b, 0xea, 0xe9, 0x04, 0xed, 0xd4,
  0xdb, 0xd8, 0x2e, 0xe8, 0xea, 0xb9, 0xe1, 0xcc, 0x1a, 0x1a, 0x25, 0x31,
  0x2b, 0x2e, 0x10, 0x0a, 0xf2, 0x7e, 0xf5, 0x32, 0x22, 0x34, 0xf5, 0x07,
  0xbc, 0xcb, 0xe1, 0xdc, 0xd9, 0x26, 0xd9, 0xf6, 0xf6, 0xa2, 0x51, 0xe3,
  0x15, 0x0f, 0xc6, 0x02, 0x22, 0x1b, 0x00, 0xea, 0xfa, 0x05, 0x09, 0x04,
  0x0c, 0xc5, 0xfc, 0x00, 0x16, 0x04, 0x25, 0x16, 0x27, 0x09, 0xfb, 0xf1,
  0x1d, 0x0b, 0x03, 0xd9, 0xd6, 0x0c, 0x03, 0xd5, 0xdb, 0xf4, 0xda, 0x15,
  0xf9, 0x18, 0x21, 0x10, 0xfb, 0x26, 0x01, 0x04, 0x0e, 0x09, 0xf8, 0xfc,
  0x18, 0xef, 0x02, 0x16, 0xf7, 0x07, 0x0b, 0xed, 0xfa, 0xe4, 0x1b, 0x21,
  0x26, 0xd5, 0xdc, 0x1b, 0xf9, 0x1d, 0x04, 0x0c, 0x0c, 0xf0, 0x12, 0x2a,
  0xe5, 0x14, 0x31, 0x10, 0x09, 0x2c, 0xfc, 0x03, 0xfa, 0x09, 0xf5, 0xfc,
  0xc4, 0xe0, 0xdb, 0xcd, 0x1e, 0xe5, 0xfb, 0xbf, 0xdb, 0xb8, 0x35, 0xe0,
  0x06, 0x02, 0xbb, 0xc6, 0xf8, 0x1b, 0xea, 0xd8, 0xfc, 0xeb, 0x08, 0x1f,
  0x35, 0xee, 0xcf, 0x23, 0xf9, 0x16, 0x2b, 0xf2, 0xfc, 0x25, 0xed, 0x04,
  0xef, 0xf3, 0x2a, 0x23, 0x06, 0xcc, 0x81, 0x08, 0xfb, 0x21, 0x2c, 0x11,
  0x03, 0x0a, 0x1f, 0x02, 0x2c, 0x16, 0x10, 0x15, 0x2e, 0xb9, 0xfd, 0xff,
  0x15, 0x29, 0xf0, 0x25, 0x15, 0x2d, 0x03, 0x1e, 0xf0, 0x04, 0x23, 0xe7,
  0x2d, 0xa8, 0xbf, 0x31, 0x0d, 0x1d, 0x2a, 0x07, 0x03, 0x20, 0xb1, 0xb6,
  0xc4, 0xe5, 0x20, 0x53, 0x12, 0xf6, 0x2b, 0x0c, 0xf1, 0x44, 0x2f, 0xef,
  0xf3, 0xde, 0xd8, 0x02, 0xd5, 0xed, 0x17, 0x25, 0x2d, 0xaf, 0x83, 0x02,
  0xa7, 0xe9, 0x16, 0xec, 0x21, 0x13, 0xed, 0x08, 0xf0, 0xfe, 0xff, 0xf2,
  0x41, 0x9e, 0x92, 0x58, 0x22, 0xed, 0x3c, 0x2a, 0x3a, 0x2f, 0x38, 0x33,
  0x1e, 0x06, 0x45, 0x05, 0x03, 0xd5, 0xf7, 0x48, 0x1a, 0x05, 0x4a, 0x3a,
  0x18, 0xee, 0x15, 0xf1, 0x2b, 0xfe, 0x03, 0xee, 0x04, 0x9f, 0xfd, 0x07,
  0x35, 0x1e, 0x0f, 0x0f, 0xbe, 0x22, 0xab, 0x81, 0xbd, 0xad, 0x09, 0xf2,
  0x4c, 0xc9, 0xbc, 0x25, 0x00, 0x02, 0x03, 0xce, 0x25, 0xf3, 0xd5, 0xd5,
  0xaf, 0xfa, 0x3e, 0x44, 0x25, 0x99, 0xae, 0x20, 0xea, 0x08, 0x31, 0xb1,
  0x13, 0x43, 0x4d, 0x27, 0xcc, 0xd4, 0x08, 0x22, 0x1f, 0xd4, 0x0a, 0xfc,
  0xf1, 0x2e, 0x43, 0xfe, 0xd1, 0xc0, 0xdb, 0xd7, 0xfb, 0x00, 0xd8, 0xf1,
  0x07, 0xfd, 0xdd, 0x16, 0x06, 0xf7, 0x02, 0xd2, 0xb4, 0x00, 0xef, 0xc6,
  0xc6, 0xae, 0xf9, 0xec, 0xf8, 0xac, 0xdb, 0xc8, 0xe1, 0x14, 0xe5, 0xef,
  0xe3, 0x0f, 0x22, 0x2f, 0xd0, 0xe9, 0x05, 0xce, 0xe8, 0xc7, 0xd8, 0x1a,
  0xcd, 0xd7, 0x18, 0xf0, 0x11, 0x1c, 0x46, 0x58, 0x4e, 0x2e, 0xf9, 0xee,
  0x35, 0x81, 0xd4, 0xf0, 0xfe, 0xe1, 0x30, 0x55, 0x44, 0x3a, 0x10, 0x29,
  0x66, 0x22, 0x0c, 0x0b, 0xd7, 0x8a, 0xdd, 0x13, 0x13, 0x0c, 0xf6, 0x3f,
  0x24, 0x09, 0x42, 0x2c, 0x11, 0xfe, 0x14, 0xfc, 0x19, 0x1a, 0x13, 0x27,
  0x08, 0x31, 0xf4, 0xfc, 0xec, 0xfc, 0x0c, 0x1d, 0xd1, 0x44, 0xa1, 0xd8,
  0xf7, 0xca, 0xf7, 0xd4, 0x0f, 0x14, 0xf9, 0x24, 0x32, 0x16, 0x4d, 0x2a,
  0x46, 0x33, 0x0e, 0xfb, 0x34, 0xfc, 0xc5, 0xf7, 0x0b, 0x18, 0xfb, 0x3e,
  0x3e, 0x19, 0x3f, 0xf7, 0x11, 0x05, 0x13, 0x33, 0x0a, 0xcd, 0x48, 0x14,
  0x2b, 0x22, 0xfd, 0xf7, 0x30, 0xe7, 0x2d, 0xe7, 0x1f, 0x15, 0xe3, 0xeb,
  0x0d, 0xfb, 0xfa, 0xda, 0x08, 0x22, 0xe2, 0x53, 0x07, 0x2d, 0x07, 0x09,
  0x4a, 0xe4, 0x06, 0xe2, 0xe5, 0x0d, 0x90, 0x12, 0x0f, 0x00, 0xea, 0x37,
  0x07, 0xf5, 0x20, 0x04, 0x1c, 0x05, 0xf9, 0xf5, 0x01, 0x0f, 0xc5, 0x00,
  0xee, 0x1c, 0xf8, 0xeb, 0x03, 0xde, 0x05, 0x15, 0xf7, 0x38, 0xfa, 0xf8,
  0x24, 0x40, 0xb7, 0xce, 0x39, 0x40, 0xf2, 0xf9, 0xf7, 0x1e, 0x52, 0x35,
  0x2d, 0x66, 0xf3, 0xe2, 0x14, 0x7f, 0xc3, 0xeb, 0x1f, 0x0d, 0xd8, 0x55,
  0xe9, 0x19, 0x14, 0x38, 0x12, 0xf2, 0x14, 0xf7, 0x13, 0x1b, 0x00, 0x38,
  0xfe, 0x02, 0xf2, 0x1e, 0xec, 0xcd, 0xf1, 0x15, 0xde, 0xec, 0x16, 0xea,
  0xda, 0xc5, 0x03, 0xc0, 0x08, 0xdd, 0xf4, 0xf8, 0xf2, 0x00, 0x08, 0x0f,
  0x1e, 0x20, 0xd8, 0x0f, 0xfe, 0x1a, 0xa3, 0xe0, 0xfa, 0x18, 0x0c, 0x1c,
  0x09, 0xe0, 0x27, 0xf2, 0xf0, 0x49, 0xef, 0x06, 0x10, 0x00, 0xe5, 0xfc,
  0x27, 0x11, 0xde, 0x10, 0x0c, 0x12, 0xce, 0xed, 0x01, 0x15, 0x01, 0x0f,
  0xf6, 0xc9, 0xe1, 0x00, 0x0a, 0x23, 0x0a, 0x31, 0x0c, 0x10, 0x26, 0x17,
  0x65, 0x0a, 0xe5, 0xd3, 0x0d, 0x3c, 0xb9, 0x07, 0xef, 0x03, 0xd6, 0x39,
  0x27, 0x07, 0x3a, 0x2a, 0x06, 0x51, 0xd9, 0xdc, 0xe3, 0x2c, 0x3d, 0xe5,
  0x05, 0xdb, 0xd8, 0x07, 0x1f, 0xf7, 0x3c, 0x33, 0x0e, 0x1b, 0x0c, 0xfb,
  0xd7, 0xd5, 0xf4, 0x0b, 0x14, 0x08, 0xea, 0x09, 0xe6, 0xed, 0x34, 0x0f,
  0x1c, 0x43, 0xd9, 0xde, 0xde, 0x35, 0x12, 0xcb, 0x20, 0x27, 0xcb, 0x18,
  0xfe, 0xda, 0x02, 0xb3, 0x01, 0x10, 0xeb, 0xe3, 0x0c, 0x05, 0x27, 0xe9,
  0xfc, 0xff, 0xd0, 0x02, 0x1b, 0xef, 0x10, 0xea, 0x0e, 0xfe, 0xdb, 0x06,
  0xf0, 0xfb, 0xfa, 0xe7, 0x03, 0x0c, 0xcf, 0x1f, 0x39, 0x26, 0xea, 0xe7,
  0xe6, 0x0a, 0x3c, 0x0b, 0x07, 0x41, 0x22, 0x05, 0xfb, 0x0f, 0x28, 0xff,
  0xf4, 0xf0, 0xdc, 0xac, 0xce, 0xce, 0x00, 0xed, 0xe4, 0x81, 0xf1, 0xde,
  0x00, 0x01, 0xf4, 0xbd, 0xf5, 0xe2, 0xe8, 0xdc, 0x03, 0xad, 0x15, 0xf5,
  0xdb, 0x25, 0x4c, 0xf4, 0xc1, 0xe8, 0x12, 0xe6, 0xf1, 0xf7, 0xf5, 0xf7,
  0x29, 0xa1, 0x15, 0x02, 0xc8, 0x00, 0x2b, 0x09, 0xd7, 0xcc, 0xfb, 0xd4,
  0x2b, 0xff, 0xde, 0x12, 0xe0, 0xfe, 0xf7, 0xf7, 0x02, 0xfb, 0x1d, 0x2c,
  0xef, 0xe9, 0x36, 0xe3, 0x30, 0x15, 0x37, 0x2f, 0x09, 0x38, 0x24, 0x39,
  0x1d, 0x37, 0xfa, 0x36, 0x10, 0x3f, 0x2d, 0x16, 0x20, 0x00, 0x2c, 0x4c,
  0x3b, 0x73, 0xf7, 0x23, 0x13, 0x5b, 0x13, 0xf0, 0x49, 0x44, 0x10, 0x32,
  0x0e, 0x35, 0x10, 0x35, 0x24, 0x22, 0xf2, 0x14, 0x46, 0xf3, 0xf1, 0x42,
  0x30, 0x34, 0x19, 0x25, 0xe0, 0xf2, 0xfb, 0xf6, 0x03, 0x25, 0xe6, 0xf4,
  0x0b, 0x81, 0x1f, 0xf8, 0x17, 0x14, 0xe4, 0xdc, 0xb9, 0xb5, 0xce, 0xcb,
  0xa8, 0xe7, 0xa9, 0xd5, 0xbe, 0x03, 0xf9, 0xce, 0xca, 0xd5, 0xbd, 0xc0,
  0x87, 0xb3, 0xb9, 0xdb, 0xca, 0xf8, 0x9f, 0xcd, 0xeb, 0xf6, 0xd0, 0xe9,
  0xfa, 0xcb, 0xdc, 0xbd, 0x1b, 0x0c, 0x0a, 0xfc, 0x2b, 0x0e, 0xfa, 0xed,
  0x1c, 0x3a, 0x35, 0xfa, 0x1a, 0x13, 0xff, 0x1d, 0xd9, 0xa0, 0xf8, 0xf0,
  0x99, 0x32, 0xc5, 0xa8, 0xd3, 0x81, 0x4a, 0x97, 0x99, 0x9e, 0x9a, 0x9d,
  0x09, 0x02, 0x18, 0x19, 0x16, 0x1e, 0x10, 0x08, 0x26, 0x0f, 0x32, 0x22,
  0xf9, 0x1b, 0xfc, 0x0a, 0xed, 0x03, 0xf2, 0xde, 0x04, 0x1c, 0x1f, 0x11,
  0x1e, 0xf0, 0x53, 0xe9, 0x20, 0x0c, 0xfa, 0xf2, 0x10, 0xdb, 0x01, 0x01,
  0xf1, 0x1d, 0xd9, 0xbc, 0xa0, 0x0c, 0x2b, 0xe3, 0xa7, 0xc7, 0xbb, 0xd6,
  0x09, 0xfe, 0x03, 0xf5, 0xfe, 0x01, 0x0c, 0x1e, 0x10, 0x0a, 0x4b, 0x1a,
  0x18, 0x1b, 0xff, 0x06, 0xf4, 0xeb, 0x12, 0x0d, 0xfc, 0xdd, 0x04, 0xfa,
  0xec, 0xdc, 0x3d, 0xf7, 0xe2, 0xfb, 0xf8, 0xfb, 0x1f, 0xf0, 0x0b, 0x27,
  0x09, 0x23, 0x0e, 0x0a, 0xf2, 0x35, 0x15, 0x13, 0x1e, 0x0d, 0x07, 0x03,
  0x03, 0xfe, 0x04, 0xf4, 0x0a, 0xf9, 0xff, 0x0e, 0xff, 0xe8, 0x1d, 0x0b,
  0x15, 0x0b, 0xf5, 0x03, 0xb5, 0xaf, 0xe8, 0xd8, 0xe2, 0xeb, 0xbe, 0xa9,
  0xc3, 0xc7, 0x24, 0xe4, 0x81, 0xa0, 0xe3, 0xbc, 0x0d, 0x0c, 0x13, 0x13,
  0xed, 0xed, 0x0d, 0xf8, 0xf9, 0x07, 0x1e, 0x2d, 0xcf, 0xd8, 0x0f, 0x02,
  0x07, 0x10, 0x19, 0x20, 0x2a, 0x1e, 0x15, 0x15, 0x10, 0x20, 0x3a, 0x0b,
  0x0a, 0x2c, 0x11, 0x12, 0xf5, 0xf9, 0x0a, 0xed, 0xd2, 0x0b, 0xff, 0x04,
  0xf4, 0x0e, 0x2b, 0xd6, 0xd1, 0x07, 0xce, 0x01, 0xff, 0xf4, 0xf9, 0x05,
  0xff, 0x3b, 0xea, 0xe6, 0x0b, 0x15, 0x23, 0xf6, 0xfa, 0xea, 0x02, 0x1e,
  0x2a, 0x21, 0x18, 0x1c, 0xfc, 0x30, 0x1b, 0x16, 0x1b, 0xef, 0x05, 0xff,
  0x15, 0x0a, 0x0a, 0x1f, 0xf4, 0x04, 0xcd, 0xd2, 0xb7, 0xfc, 0x06, 0x28,
  0x1c, 0x01, 0xe8, 0x02, 0xfc, 0xf9, 0x10, 0xe4, 0xf6, 0xf4, 0xcd, 0xd4,
  0xc0, 0xdf, 0xff, 0x1c, 0x1b, 0xf8, 0xff, 0xf7, 0xe1, 0x1b, 0x10, 0xf1,
  0x00, 0x08, 0x19, 0x33, 0xeb, 0x06, 0x02, 0x10, 0x19, 0xf7, 0x05, 0x17,
  0xef, 0x00, 0x05, 0x02, 0x00, 0x18, 0x20, 0x12, 0x01, 0xe4, 0x06, 0x1f,
  0x03, 0x1f, 0xd7, 0x10, 0x17, 0x35, 0x01, 0x26, 0xf5, 0x10, 0x1a, 0xfa,
  0xf8, 0x26, 0xe4, 0xff, 0xfd, 0xd6, 0xcf, 0xef, 0x1e, 0xee, 0x02, 0xeb,
  0x0f, 0x16, 0x11, 0x13, 0xf1, 0xfd, 0xfd, 0x19, 0x06, 0xf8, 0x12, 0x11,
  0xfc, 0x09, 0x33, 0xf4, 0x07, 0x19, 0xe9, 0xfd, 0xdf, 0xcc, 0xfc, 0x19,
  0xf4, 0xd2, 0xb0, 0x19, 0x02, 0x2b, 0x25, 0xee, 0x17, 0xf6, 0x18, 0xf5,
  0x0f, 0xdf, 0x07, 0x13, 0xf8, 0xd7, 0x81, 0x1d, 0x16, 0x0b, 0xfe, 0x02,
  0x07, 0x30, 0xf0, 0x27, 0x05, 0xbe, 0x20, 0x27, 0x09, 0xc8, 0xd5, 0x20,
  0x0c, 0xff, 0x2c, 0xf7, 0x26, 0x12, 0x08, 0xe5, 0xfb, 0xf2, 0x1e, 0x29,
  0x1d, 0xe8, 0x99, 0x07, 0x12, 0x15, 0xf3, 0x08, 0x1d, 0x0d, 0xd7, 0xfc,
  0xea, 0xc9, 0x13, 0x1c, 0x32, 0xee, 0xb2, 0x05, 0xfc, 0xf9, 0x0f, 0xf3,
  0x11, 0x21, 0xf7, 0x17, 0xe6, 0xc4, 0x37, 0x1f, 0x03, 0xd9, 0xf2, 0x2a,
  0xf5, 0xfe, 0x35, 0xeb, 0x2c, 0x1f, 0x6c, 0x3b, 0x23, 0x5f, 0xfc, 0x19,
  0x07, 0xec, 0x75, 0x15, 0x2f, 0xee, 0xde, 0x41, 0x43, 0xf8, 0x14, 0xe6,
  0x01, 0x3a, 0xff, 0x45, 0x2f, 0x04, 0x2f, 0x19, 0x1a, 0x2e, 0x57, 0x36,
  0x44, 0x4f, 0x32, 0x21, 0x17, 0xee, 0x16, 0x41, 0x18, 0x08, 0xf8, 0x0d,
  0x17, 0xf0, 0x0b, 0x01, 0x2e, 0xfb, 0xfa, 0xd2, 0xed, 0x29, 0x0b, 0x52,
  0x12, 0x4e, 0x04, 0xf7, 0xed, 0x22, 0x19, 0x05, 0x1b, 0x29, 0x92, 0xc6,
  0x8c, 0xfc, 0x27, 0x59, 0x3a, 0xf1, 0xc4, 0x4f, 0xf6, 0x52, 0x51, 0xe6,
  0x28, 0x04, 0xf1, 0x21, 0x0b, 0x0f, 0xff, 0x4a, 0xf2, 0xf5, 0x15, 0xf0,
  0x3f, 0x4b, 0x18, 0xe7, 0x0b, 0x23, 0xe2, 0x84, 0xba, 0xe1, 0x3a, 0x21,
  0x51, 0x83, 0xc6, 0x21, 0xf8, 0xfe, 0x1e, 0xca, 0xcb, 0xdc, 0x81, 0x8f,
  0xb3, 0xa3, 0x42, 0x4b, 0x0b, 0xd6, 0xaf, 0x00, 0xaa, 0xce, 0x23, 0x9a,
  0xda, 0xbd, 0x28, 0xdf, 0xc2, 0x30, 0xfd, 0x0c, 0xb5, 0x5b, 0x14, 0xfe,
  0xfb, 0xfe, 0xf7, 0xec, 0x28, 0xeb, 0x3e, 0xee, 0x2f, 0x6f, 0xd8, 0xef,
  0xfc, 0x34, 0xc8, 0x00, 0x11, 0x0b, 0xba, 0x03, 0x31, 0xe7, 0x1f, 0x11,
  0x07, 0x26, 0x18, 0xd7, 0x2d, 0x1c, 0x27, 0xfe, 0xe3, 0xf3, 0xe8, 0xfc,
  0xb2, 0x13, 0xbe, 0xab, 0xf5, 0xe4, 0x1a, 0x18, 0x25, 0xcf, 0xcf, 0x23,
  0x02, 0xed, 0xf0, 0xf5, 0xe6, 0xd0, 0x13, 0x0d, 0xf7, 0x55, 0xf1, 0x01,
  0xf6, 0x11, 0x07, 0xf3, 0x13, 0xdc, 0xca, 0x22, 0xe1, 0xd8, 0x36, 0x13,
  0x14, 0x78, 0xf1, 0xe8, 0x0b, 0x10, 0x52, 0xe2, 0xf6, 0x30, 0xe2, 0xf9,
  0xd6, 0x28, 0x25, 0x23, 0x11, 0xca, 0x42, 0x08, 0x19, 0x81, 0x12, 0x21,
  0xf1, 0xf5, 0x15, 0x0b, 0xe4, 0x17, 0xf8, 0xf7, 0xe4, 0x02, 0xf6, 0x07,
  0xff, 0xf3, 0x45, 0xe3, 0xef, 0xf8, 0xc8, 0x05, 0x15, 0xd4, 0x2a, 0x12,
  0x21, 0xff, 0xd9, 0xc8, 0xf9, 0x38, 0x15, 0xee, 0xd7, 0xda, 0xa2, 0xfc,
  0x30, 0x04, 0x3e, 0x66, 0xf7, 0x4c, 0x1b, 0xd2, 0xcd, 0xd5, 0x1a, 0xe8,
  0xef, 0xf2, 0xf3, 0x38, 0x82, 0xea, 0xff, 0xff, 0x04, 0x00, 0x00, 0x00,
  0x80, 0x00, 0x00, 0x00, 0x91, 0xfc, 0xff, 0xff, 0xcf, 0x04, 0x00, 0x00,
  0xe7, 0x01, 0x00, 0x00, 0x8a, 0x01, 0x00, 0x00, 0x95, 0xff, 0xff, 0xff,
  0xa2, 0x00, 0x00, 0x00, 0x84, 0x02, 0x00, 0x00, 0x22, 0xff, 0xff, 0xff,
  0xf4, 0x00, 0x00, 0x00, 0xb7, 0xfc, 0xff, 0xff, 0x71, 0xfc, 0xff, 0xff,
  0xde, 0xfb, 0xff, 0xff, 0xdf, 0x01, 0x00, 0x00, 0x2d, 0x02, 0x00, 0x00,
  0x36, 0x01, 0x00, 0x00, 0x58, 0x01, 0x00, 0x00, 0x9f, 0xff, 0xff, 0xff,
  0xdb, 0x02, 0x00, 0x00, 0xcd, 0xfc, 0xff, 0xff, 0x65, 0x02, 0x00, 0x00,
  0xd2, 0x01, 0x00, 0x00, 0x62, 0xff, 0xff, 0xff, 0x09, 0xfe, 0xff, 0xff,
  0x86, 0xfd, 0xff, 0xff, 0x49, 0xff, 0xff, 0xff, 0xa9, 0xff, 0xff, 0xff,
  0x63, 0x00, 0x00, 0x00, 0x73, 0x01, 0x00, 0x00, 0x66, 0x02, 0x00, 0x00,
  0x9b, 0xfd, 0xff, 0xff, 0xce, 0x01, 0x00, 0x00, 0xf0, 0x00, 0x00, 0x00,
  0x0e, 0xeb, 0xff, 0xff, 0x04, 0x00, 0x00, 0x00, 0x00, 0x14, 0x00, 0x00,
  0xfc, 0xfa, 0x01, 0xfb, 0xf2, 0xf2, 0x0f, 0xf4, 0x07, 0xfd, 0xf8, 0xfb,
  0xec, 0x16, 0xee, 0xf4, 0x20, 0x21, 0xe8, 0xf8, 0x04, 0x0b, 0x05, 0xfe,
  0x09, 0x1a, 0x22, 0x02, 0x01, 0x03, 0xed, 0x0f, 0xe9, 0xf9, 0xf9, 0xf6,
  0x10, 0xc3, 0x07, 0xf5, 0xfb, 0xe1, 0xf0, 0x07, 0xed, 0xf6, 0x0f, 0xdd,
  0xfc, 0xe2, 0xf3, 0xf7, 0xf4, 0xe6, 0xdc, 0xdb, 0xf1, 0xff, 0xf4, 0x01,
  0x12, 0xfe, 0x12, 0x03, 0xe8, 0x0a, 0xe5, 0xe9, 0xd3, 0xd0, 0x05, 0xf2,
  0xef, 0x01, 0xe2, 0xe1, 0xd5, 0xec, 0x02, 0x0c, 0xe8, 0x02, 0xf8, 0xe4,
  0x04, 0x13, 0xfb, 0x07, 0x0c, 0xfa, 0xe0, 0x02, 0x16, 0xec, 0x0f, 0x09,
  0x01, 0xdc, 0x16, 0x02, 0x02, 0xfd, 0x06, 0x11, 0x11, 0x08, 0x03, 0xfa,
  0xff, 0x02, 0x14, 0xfa, 0xff, 0x05, 0xf7, 0x03, 0x0f, 0xec, 0xea, 0x0e,
  0xef, 0xf8, 0xed, 0x0d, 0x0f, 0x06, 0xfe, 0xff, 0x07, 0xe1, 0x0e, 0x01,
  0xeb, 0xfb, 0x0c, 0x13, 0x25, 0xfe, 0x0a, 0x02, 0x0a, 0x09, 0xfe, 0x15,
  0x09, 0x2c, 0x16, 0xf0, 0x21, 0x14, 0x0f, 0x0d, 0xfa, 0x0f, 0xe0, 0x01,
  0xf2, 0xf9, 0xf0, 0x01, 0xf7, 0xff, 0xfe, 0xea, 0x0e, 0x0b, 0xe9, 0xdc,
  0xec, 0xe0, 0xfa, 0xd3, 0x0e, 0x04, 0xe8, 0xd9, 0xfd, 0xdb, 0xeb, 0xbd,
  0xed, 0xc8, 0xe4, 0xed, 0xe5, 0xe7, 0xe4, 0x11, 0xba, 0xef, 0x0e, 0x0c,
  0x0d, 0xff, 0x00, 0xf2, 0xfc, 0xc6, 0x00, 0xff, 0x24, 0x16, 0xff, 0xdd,
  0xe9, 0x1d, 0xe2, 0x04, 0xfb, 0x13, 0xff, 0x0d, 0x14, 0x07, 0xf0, 0x05,
  0xe9, 0x12, 0xff, 0xee, 0xfb, 0xd5, 0xfa, 0xed, 0xf2, 0xf5, 0xed, 0x04,
  0x03, 0x08, 0xfd, 0xfa, 0x00, 0xe0, 0xfe, 0xf3, 0xe1, 0x0b, 0x03, 0xfa,
  0x08, 0x11, 0xeb, 0x1b, 0x00, 0xfe, 0xff, 0xf1, 0x03, 0xe9, 0x02, 0x15,
  0x05, 0xfe, 0xf5, 0x10, 0x0d, 0xfa, 0x1e, 0xf7, 0x0b, 0x2a, 0x02, 0x23,
  0x2c, 0x12, 0x0b, 0xfa, 0x14, 0x1c, 0x09, 0x0d, 0x25, 0x2c, 0x07, 0x07,
  0x12, 0x0f, 0x17, 0x01, 0xf5, 0x18, 0xfa, 0xff, 0x01, 0x0e, 0x05, 0xfa,
  0xe8, 0x08, 0x00, 0x49, 0xf8, 0x19, 0x14, 0xe7, 0x0d, 0xf8, 0xe6, 0x07,
  0x18, 0xff, 0xe7, 0xf7, 0xed, 0xe2, 0x01, 0xe4, 0xf3, 0x07, 0x07, 0x09,
  0x01, 0xf2, 0x1f, 0x22, 0xa5, 0x01, 0xfc, 0x00, 0x0c, 0x17, 0x0a, 0xf8,
  0xfb, 0x05, 0xf6, 0x1e, 0x2b, 0x05, 0x0a, 0x08, 0x11, 0x32, 0x12, 0x0a,
  0xf9, 0x05, 0xfa, 0x2b, 0x14, 0xf1, 0xf8, 0xe1, 0x0c, 0x04, 0x08, 0x16,
  0x26, 0xfd, 0xf8, 0x12, 0xfa, 0x15, 0x11, 0x1d, 0x18, 0xef, 0xfe, 0xf8,
  0x04, 0xe4, 0xeb, 0x02, 0xfd, 0x18, 0x11, 0x07, 0x17, 0x17, 0xfa, 0x20,
  0xf4, 0x1a, 0x08, 0xee, 0xfc, 0x00, 0x30, 0x28, 0x00, 0x08, 0x0b, 0x00,
  0xf9, 0x07, 0x10, 0x11, 0x05, 0x11, 0x01, 0x01, 0x07, 0xf3, 0x0e, 0xf2,
  0x0e, 0xfc, 0xed, 0xfe, 0xf7, 0x14, 0xf8, 0xf3, 0x1d, 0xfe, 0x04, 0x15,
  0xfa, 0x03, 0x0b, 0x07, 0xfb, 0x01, 0x04, 0x0a, 0xf6, 0xfe, 0x10, 0x0e,
  0x09, 0x0b, 0x13, 0x13, 0xf0, 0x09, 0xf6, 0x07, 0x0b, 0x17, 0xf9, 0xec,
  0x02, 0xfd, 0xee, 0x00, 0x0a, 0x06, 0x08, 0x0c, 0xf6, 0xf4, 0x17, 0x47,
  0x08, 0xf9, 0x08, 0x06, 0x22, 0x0c, 0x0b, 0xfd, 0xfd, 0x13, 0x0f, 0x11,
  0x02, 0x09, 0x0c, 0x04, 0x09, 0x16, 0x1c, 0x06, 0x16, 0x0e, 0x09, 0x3f,
  0x04, 0x04, 0x10, 0xf3, 0xf9, 0x05, 0x06, 0xfc, 0x38, 0x06, 0x0c, 0xff,
  0x01, 0x0c, 0x11, 0x1b, 0x05, 0x0e, 0x07, 0x15, 0x0a, 0x0d, 0xf7, 0x01,
  0x1b, 0x13, 0xfb, 0x0d, 0x0d, 0x10, 0xfd, 0x06, 0x00, 0x17, 0x02, 0xf7,
  0xf6, 0xf7, 0xf1, 0x0c, 0x01, 0x0b, 0x06, 0x02, 0x0f, 0xfc, 0x10, 0xf9,
  0x0e, 0xe6, 0xd4, 0xbb, 0x13, 0xea, 0xf5, 0xdb, 0x12, 0x07, 0xd5, 0xf4,
  0xf4, 0x1d, 0xed, 0xf4, 0x1a, 0xf4, 0xf0, 0xeb, 0xf5, 0x00, 0xeb, 0xf9,
  0xfa, 0x0b, 0xf4, 0x1f, 0xee, 0xcc, 0xde, 0x08, 0x32, 0xf1, 0x0e, 0x01,
  0x25, 0x1f, 0x11, 0xe1, 0x31, 0xe8, 0x1a, 0xf6, 0xfb, 0x32, 0xe8, 0x2a,
  0x2f, 0xf3, 0xec, 0x06, 0x01, 0x14, 0xf9, 0x04, 0xf7, 0xe7, 0xe9, 0x04,
  0x05, 0x00, 0xff, 0x1b, 0x1c, 0xf4, 0xef, 0xe1, 0x22, 0xf4, 0xf9, 0xf2,
  0xf1, 0x02, 0xf4, 0xef, 0x02, 0xfd, 0xf3, 0xe1, 0xfb, 0x04, 0xdc, 0xd0,
  0xf9, 0xf4, 0xf4, 0x0e, 0xe2, 0xf3, 0x05, 0xfc, 0xf8, 0xc2, 0x03, 0x04,
  0xee, 0xd9, 0xda, 0x00, 0x07, 0x0d, 0x01, 0xdc, 0x05, 0xfa, 0x09, 0x06,
  0xea, 0xfe, 0xda, 0x0d, 0x0b, 0xe1, 0xea, 0xfe, 0xe9, 0x04, 0xd4, 0xe9,
  0x1a, 0xee, 0xea, 0xeb, 0x08, 0xd6, 0x18, 0x29, 0xf3, 0xbb, 0xd9, 0xd5,
  0xf4, 0xc7, 0xe0, 0xf8, 0x09, 0xf9, 0xee, 0xf7, 0x04, 0x39, 0xf8, 0xf7,
  0x1c, 0xf9, 0xeb, 0xf6, 0xe1, 0x0c, 0xdd, 0x18, 0xfb, 0xf2, 0x04, 0xfc,
  0xed, 0xbe, 0x33, 0x11, 0xf1, 0xb0, 0xf1, 0xf8, 0x19, 0x06, 0x09, 0xf2,
  0x1d, 0x16, 0x02, 0x0a, 0xf9, 0x35, 0xe4, 0x35, 0x1f, 0xf0, 0xf4, 0xfa,
  0xfa, 0x08, 0xa1, 0x0f, 0x1a, 0xcc, 0xfa, 0x0e, 0x04, 0xf7, 0x0f, 0x14,
  0x03, 0xf5, 0x01, 0xd7, 0x06, 0xe7, 0xe7, 0xfb, 0x13, 0xe4, 0xfe, 0x01,
  0x12, 0x01, 0xfa, 0x31, 0xeb, 0xc8, 0xd1, 0xfc, 0x02, 0xe2, 0xfe, 0x06,
  0xf7, 0xf8, 0xed, 0xe3, 0xeb, 0xe0, 0xf3, 0x00, 0xf5, 0xce, 0xc9, 0xea,
  0x05, 0xe0, 0xf0, 0xe4, 0xe9, 0xf9, 0xf6, 0xf8, 0xdc, 0xf4, 0xf7, 0xf8,
  0xed, 0xe9, 0xdc, 0xf6, 0xea, 0xf5, 0xde, 0xf8, 0x06, 0xe6, 0xe2, 0xe7,
  0xe0, 0xf0, 0xfe, 0x0a, 0x03, 0xa4, 0x05, 0xf4, 0xe7, 0xed, 0xda, 0xfa,
  0xf0, 0xee, 0xea, 0x0d, 0x00, 0x11, 0x18, 0x0a, 0xf0, 0xcb, 0xea, 0xf5,
  0xe6, 0x07, 0x05, 0x06, 0xf4, 0x15, 0xf1, 0xe4, 0xdd, 0xf1, 0x09, 0xd3,
  0xed, 0xc6, 0xe3, 0xf6, 0xfa, 0xef, 0xf9, 0xfa, 0xf6, 0x0d, 0x05, 0xf8,
  0x11, 0x19, 0x12, 0x27, 0x04, 0x20, 0x04, 0xe4, 0x08, 0x1e, 0xd6, 0x2f,
  0x14, 0x01, 0xf1, 0x0c, 0xfb, 0xfc, 0xec, 0x0f, 0x07, 0x02, 0x0a, 0xe9,
  0xf9, 0xf5, 0xe0, 0xf1, 0x03, 0x28, 0xfe, 0x0c, 0xdc, 0xf3, 0xf3, 0x27,
  0xda, 0xf4, 0xe2, 0xdd, 0x0b, 0xe6, 0x0a, 0x13, 0x37, 0x14, 0x00, 0xf9,
  0xe5, 0xdd, 0xf9, 0xf3, 0xe9, 0xde, 0xd0, 0x00, 0xf9, 0xf9, 0xee, 0xed,
  0xe6, 0x02, 0xf2, 0xf7, 0xe8, 0x01, 0xf6, 0x05, 0x06, 0xde, 0xf3, 0x0a,
  0x03, 0xfa, 0xdc, 0xef, 0x08, 0xf2, 0xe8, 0xf1, 0xe9, 0xed, 0x0b, 0xfb,
  0xec, 0x0c, 0xf3, 0xf1, 0xe5, 0xf5, 0x07, 0x03, 0x03, 0xff, 0xf4, 0x11,
  0xd2, 0xfc, 0x07, 0xe9, 0xfc, 0x07, 0x08, 0x0d, 0xfc, 0xed, 0xf3, 0xff,
  0xea, 0xf7, 0xe4, 0xe9, 0xf5, 0x01, 0x10, 0xf2, 0x05, 0x17, 0xcd, 0x22,
  0x05, 0x10, 0x06, 0xf7, 0xf3, 0xf0, 0xf9, 0x09, 0xd4, 0xf8, 0xf7, 0xf1,
  0x0f, 0x0b, 0x1d, 0xff, 0xe1, 0xf1, 0xe4, 0xe2, 0x07, 0x18, 0x08, 0xe2,
  0xe7, 0xf8, 0xfb, 0xf1, 0xfa, 0xfa, 0xe3, 0x10, 0xe1, 0xf6, 0xf1, 0xff,
  0xee, 0xf2, 0x0b, 0x05, 0xed, 0xf7, 0x08, 0xfe, 0x00, 0x06, 0x0d, 0xfe,
  0xe7, 0xfa, 0xee, 0xf8, 0xff, 0xfa, 0xf4, 0xe5, 0xf1, 0xe0, 0x09, 0x00,
  0xfa, 0xf4, 0xde, 0x02, 0xe9, 0x00, 0x09, 0x05, 0xf5, 0xf8, 0x09, 0xfd,
  0xfe, 0xf1, 0xf9, 0xec, 0xf2, 0xf7, 0xf7, 0xff, 0x07, 0xfa, 0xdf, 0xee,
  0x08, 0xee, 0xef, 0xea, 0xd3, 0x1f, 0xf6, 0xeb, 0xf6, 0x32, 0xf6, 0x04,
  0xe0, 0xf7, 0xf3, 0x02, 0xe2, 0xf5, 0xef, 0x0b, 0xf5, 0xc0, 0x14, 0xfa,
  0xc3, 0xf9, 0xf6, 0xe3, 0xf1, 0xe1, 0xf9, 0xf1, 0xec, 0x0f, 0x1b, 0xdc,
  0x07, 0x20, 0x05, 0xdb, 0x0c, 0x03, 0xfe, 0xfb, 0xf6, 0xf2, 0x04, 0x05,
  0xdd, 0x00, 0x0c, 0x16, 0xf7, 0x0a, 0xfc, 0xf6, 0xfc, 0x04, 0x17, 0x0f,
  0xf9, 0xf4, 0xf5, 0xe9, 0x20, 0x0e, 0xfd, 0x14, 0x08, 0xd7, 0xe7, 0xfd,
  0x0d, 0xf2, 0x0d, 0x09, 0xe8, 0x14, 0xe5, 0x01, 0xb5, 0xc8, 0xe8, 0x0c,
  0x09, 0xfd, 0xfc, 0xc7, 0x08, 0x04, 0xfa, 0x05, 0x05, 0xf4, 0xda, 0xff,
  0xb5, 0x08, 0xd6, 0xf4, 0x02, 0x0c, 0xfb, 0x06, 0x07, 0xfc, 0xff, 0xf5,
  0x09, 0xfe, 0x08, 0xfc, 0xe5, 0x03, 0xfd, 0xfd, 0xed, 0xfa, 0x0e, 0xeb,
  0xfe, 0xfc, 0x0e, 0x01, 0x1d, 0xf7, 0xf3, 0xfa, 0xf9, 0xf7, 0xf4, 0xf6,
  0x22, 0x09, 0xdc, 0xf3, 0xe7, 0x34, 0xf2, 0x0d, 0xf2, 0x15, 0x0e, 0xf7,
  0xfa, 0xe7, 0x09, 0x05, 0xdb, 0x81, 0x02, 0x06, 0xdd, 0xfe, 0x09, 0xfa,
  0x0c, 0xf8, 0x3b, 0xc8, 0xfc, 0x03, 0x0b, 0xef, 0xff, 0xfe, 0x08, 0x0c,
  0xf3, 0xfc, 0xf9, 0xf3, 0x09, 0xf1, 0x0a, 0x0c, 0x30, 0xfa, 0x0e, 0xfd,
  0x07, 0xfc, 0xfd, 0x27, 0x07, 0x0f, 0x03, 0x12, 0x02, 0x04, 0x29, 0xe0,
  0xd0, 0x0a, 0xf4, 0xf1, 0xff, 0x0a, 0x0e, 0x1a, 0x0b, 0xf8, 0xf9, 0x0b,
  0x22, 0x03, 0x0d, 0xff, 0x0b, 0x22, 0xed, 0x0d, 0x05, 0x0e, 0x0e, 0x0c,
  0x20, 0x14, 0x0b, 0xc4, 0xfa, 0x01, 0x11, 0x24, 0xf6, 0xfc, 0x09, 0xfa,
  0xfd, 0xf2, 0x04, 0xed, 0xf8, 0xef, 0xee, 0xe2, 0xf9, 0xf6, 0x05, 0xe7,
  0xf0, 0x11, 0xd9, 0x03, 0x00, 0xff, 0xee, 0xe7, 0xf8, 0xeb, 0xfa, 0xeb,
  0x06, 0xf2, 0xe0, 0x0d, 0xf3, 0xfb, 0x0a, 0xf7, 0xf0, 0x01, 0xd4, 0xee,
  0xf5, 0x12, 0xfb, 0xf7, 0xed, 0xfb, 0x0e, 0x0c, 0xf6, 0xfe, 0xf8, 0xfc,
  0x07, 0xd4, 0xd6, 0x04, 0xec, 0x1e, 0x09, 0x1c, 0xf3, 0x0d, 0x04, 0xde,
  0x01, 0xe0, 0x06, 0x0b, 0x14, 0xf9, 0x19, 0x28, 0x08, 0x20, 0x15, 0xff,
  0x03, 0xfe, 0x0d, 0x07, 0x0c, 0x00, 0x1d, 0x00, 0xfb, 0x0b, 0xf2, 0xed,
  0x05, 0xe6, 0xe5, 0x16, 0xf6, 0x03, 0x10, 0x20, 0x0d, 0x06, 0x0e, 0x1b,
  0xf3, 0x08, 0xfc, 0xcd, 0x00, 0x03, 0xfe, 0xfb, 0xf7, 0x0c, 0xf1, 0xe0,
  0xf6, 0xbe, 0xf3, 0xf9, 0xea, 0xf6, 0xfc, 0xdb, 0x00, 0xf0, 0x11, 0x3b,
  0xfb, 0xfe, 0x11, 0xb9, 0xb8, 0x1a, 0x01, 0xe8, 0xf3, 0xe9, 0x03, 0xeb,
  0x0a, 0xe0, 0x18, 0xde, 0xdf, 0x12, 0x16, 0xf0, 0xe3, 0xec, 0x0b, 0xff,
  0xfb, 0xec, 0xf8, 0xd5, 0xf3, 0xe4, 0xec, 0x35, 0xed, 0x02, 0x16, 0xe9,
  0xfe, 0xea, 0xf3, 0xfd, 0xf6, 0xf8, 0xf1, 0x02, 0x09, 0x03, 0x08, 0xe3,
  0x01, 0x04, 0x06, 0x11, 0xfe, 0xe7, 0xf4, 0x03, 0xf0, 0x09, 0xff, 0x00,
  0xfb, 0x16, 0xeb, 0x00, 0x18, 0xff, 0xde, 0x01, 0xee, 0x07, 0xf9, 0xe0,
  0xfe, 0x00, 0xef, 0x0f, 0x00, 0xfa, 0x1e, 0x16, 0xf1, 0x00, 0xf0, 0xe0,
  0x05, 0xf7, 0xd2, 0xec, 0x0b, 0xfb, 0xec, 0x09, 0xf4, 0xda, 0xf8, 0xe8,
  0xf5, 0xee, 0x21, 0x0f, 0xf1, 0x0c, 0xe7, 0x04, 0xed, 0xfa, 0xeb, 0xec,
  0xfa, 0x18, 0x15, 0x0d, 0xfc, 0x02, 0x01, 0xeb, 0xf6, 0x07, 0xeb, 0xf6,
  0xeb, 0xf9, 0x03, 0x0c, 0xef, 0x0b, 0xf9, 0xe8, 0x10, 0xf7, 0xea, 0xdc,
  0x17, 0xf4, 0xfd, 0xf8, 0xe8, 0xf2, 0x00, 0x02, 0xec, 0x35, 0xe7, 0xfd,
  0xf6, 0x0e, 0x1d, 0xf3, 0x06, 0xed, 0x08, 0x04, 0x22, 0x04, 0xef, 0xe9,
  0xe7, 0x11, 0xed, 0x03, 0x22, 0x16, 0x09, 0xec, 0xdc, 0x08, 0x01, 0xed,
  0x26, 0x1b, 0xfb, 0xe9, 0xe7, 0x12, 0x10, 0x0d, 0xf2, 0x06, 0x0c, 0xf4,
  0xf3, 0xde, 0x09, 0xec, 0x0b, 0xd1, 0x0e, 0xfd, 0xff, 0x26, 0xf8, 0x08,
  0x0b, 0xfc, 0x3d, 0xf9, 0xf8, 0xfb, 0xfe, 0xfa, 0x1c, 0xe5, 0xbe, 0xc0,
  0x20, 0xef, 0x02, 0xf6, 0xce, 0xe8, 0x03, 0x08, 0xf0, 0xe4, 0x00, 0x01,
  0x0a, 0xdc, 0x0f, 0xf3, 0xdd, 0x1c, 0x09, 0x16, 0xfc, 0xe6, 0xd9, 0xd5,
  0xe3, 0x10, 0x02, 0xed, 0x11, 0xb7, 0xfe, 0x09, 0x04, 0xf0, 0x07, 0x14,
  0xf6, 0x0e, 0x10, 0xf3, 0xbd, 0x0b, 0x09, 0xe6, 0xf9, 0xf4, 0x1b, 0xfa,
  0xe9, 0x06, 0x01, 0x0f, 0xf2, 0xfa, 0xef, 0xdc, 0x97, 0x11, 0x95, 0x13,
  0x21, 0x16, 0xf2, 0xe6, 0x0c, 0x08, 0x1c, 0xf6, 0xeb, 0xfc, 0xf9, 0xf5,
  0x00, 0xf5, 0x0b, 0xe0, 0x07, 0x05, 0x11, 0xfd, 0xed, 0x2f, 0x02, 0x16,
  0xe9, 0xfe, 0x11, 0xfc, 0xfe, 0x2d, 0x00, 0xed, 0x1e, 0x04, 0x1e, 0xeb,
  0x10, 0x11, 0x0e, 0xf3, 0xf4, 0x08, 0x13, 0x0a, 0x02, 0x0f, 0x0d, 0x03,
  0xf0, 0x0d, 0xfd, 0xfb, 0x13, 0x03, 0x16, 0x01, 0xff, 0xf4, 0xe4, 0xd9,
  0x13, 0xf8, 0x0b, 0xfa, 0x1d, 0xf4, 0xdf, 0x31, 0x09, 0x19, 0x11, 0xf6,
  0x14, 0x07, 0x08, 0x17, 0xd7, 0xfd, 0x1d, 0x0c, 0xf6, 0xd1, 0x0d, 0xe9,
  0x03, 0xfd, 0x06, 0x0b, 0x17, 0xf9, 0x13, 0x11, 0xf5, 0x0f, 0x13, 0x17,
  0x06, 0xec, 0xfa, 0x01, 0xd2, 0xb1, 0x12, 0x10, 0xec, 0x07, 0x12, 0x05,
  0xda, 0xd2, 0x02, 0x18, 0x0d, 0x07, 0x06, 0xf4, 0xf8, 0x01, 0x13, 0xff,
  0xf4, 0x0d, 0x06, 0xe8, 0x10, 0x11, 0xf7, 0x00, 0x1f, 0xf9, 0xf1, 0xee,
  0x02, 0x04, 0x01, 0x1f, 0xec, 0xf3, 0x11, 0x23, 0xec, 0xef, 0xf1, 0x11,
  0x01, 0x11, 0x28, 0xeb, 0xfb, 0xff, 0x13, 0xfe, 0x10, 0x0e, 0x0c, 0x06,
  0xfc, 0x0c, 0xf7, 0x0c, 0x11, 0x03, 0x0d, 0xef, 0x00, 0xf5, 0xee, 0x03,
  0xfd, 0xfe, 0xf0, 0x28, 0xfc, 0xf1, 0x1e, 0xfc, 0xf4, 0x11, 0x07, 0xf4,
  0xfa, 0x0e, 0xe8, 0xe0, 0xe5, 0x08, 0x04, 0xdf, 0xf1, 0x23, 0x01, 0xe6,
  0x0a, 0x07, 0xe5, 0xf1, 0x1a, 0x05, 0xc7, 0xf6, 0xf8, 0xff, 0x08, 0xfa,
  0xff, 0xf2, 0xe9, 0x03, 0x15, 0xbe, 0xff, 0x12, 0x03, 0xe0, 0x13, 0xf5,
  0x0d, 0xfa, 0xde, 0xe6, 0xef, 0x1b, 0x08, 0xfe, 0x16, 0x13, 0x03, 0x0b,
  0x0a, 0xea, 0xed, 0x04, 0x10, 0xfd, 0x19, 0x22, 0xfb, 0xe0, 0xfd, 0x0b,
  0xf6, 0xfd, 0x01, 0xc9, 0x0b, 0x0c, 0x10, 0xea, 0x01, 0x0a, 0xe9, 0x11,
  0x01, 0x03, 0x1c, 0xff, 0xfb, 0x0b, 0x0b, 0xea, 0x0b, 0x09, 0xf1, 0x0a,
  0x09, 0x1c, 0xfe, 0x0e, 0x01, 0xe6, 0xf4, 0x14, 0x03, 0xfb, 0x08, 0xfb,
  0x07, 0xf6, 0x14, 0xec, 0x26, 0x05, 0x03, 0xf6, 0xfc, 0x0b, 0x20, 0x04,
  0xf9, 0xfa, 0xe7, 0xee, 0xdd, 0xfa, 0xe3, 0xe7, 0xee, 0x17, 0x0d, 0xd4,
  0xea, 0xe7, 0xed, 0xf9, 0xeb, 0xe3, 0x15, 0xed, 0xef, 0xf8, 0xf9, 0xf7,
  0xfa, 0xf7, 0xe7, 0xe2, 0xec, 0xf7, 0xeb, 0xf0, 0x00, 0x01, 0x00, 0xed,
  0xf2, 0x0a, 0xfa, 0x02, 0xe2, 0x16, 0x0b, 0x06, 0xd8, 0xfb, 0x01, 0xee,
  0xf6, 0xeb, 0x15, 0xd9, 0xf4, 0x27, 0x01, 0x00, 0x1b, 0xf6, 0x03, 0xe1,
  0xfa, 0xfc, 0x0c, 0xdf, 0xf7, 0xea, 0xfa, 0xfb, 0xeb, 0xfd, 0xde, 0xe5,
  0x0f, 0xf7, 0x11, 0x00, 0xf6, 0xef, 0x00, 0xf6, 0x07, 0xfb, 0xfb, 0xe3,
  0xf4, 0x06, 0x0a, 0x0c, 0x04, 0xf4, 0xed, 0xf4, 0xe2, 0x09, 0xf0, 0xff,
  0xff, 0x04, 0xf8, 0xe9, 0xf8, 0xfa, 0xf2, 0xfc, 0xde, 0x0a, 0x0c, 0x0f,
  0xe6, 0xf6, 0x0f, 0x01, 0xfc, 0xf8, 0x08, 0xf6, 0xf3, 0xe2, 0x08, 0xf8,
  0xf9, 0xe8, 0x08, 0xf0, 0x04, 0xed, 0xf1, 0xfd, 0x0c, 0xf0, 0x07, 0x1e,
  0x06, 0xe1, 0xec, 0xf4, 0x02, 0x0f, 0xfc, 0xf5, 0x1e, 0x01, 0x0f, 0x06,
  0x0e, 0x2f, 0xf5, 0x04, 0x11, 0x0f, 0xe9, 0x06, 0x0e, 0xf3, 0xcc, 0x1a,
  0x03, 0xf3, 0x0c, 0xfb, 0xf8, 0xee, 0x20, 0x20, 0xe8, 0xd3, 0xf9, 0xf2,
  0x17, 0x17, 0x1d, 0x0d, 0x2a, 0x05, 0xfd, 0xf2, 0x06, 0x28, 0xeb, 0x16,
  0x2d, 0x04, 0xf6, 0xf8, 0x1c, 0x24, 0xeb, 0x17, 0x10, 0xea, 0xdd, 0x11,
  0xf2, 0xfa, 0x21, 0x11, 0x25, 0x16, 0xfd, 0xf6, 0x05, 0xfb, 0x11, 0xfa,
  0x26, 0xfc, 0x33, 0x0c, 0x0b, 0x05, 0xfa, 0x2a, 0xee, 0xec, 0xf8, 0x08,
  0x08, 0x0c, 0x0f, 0x2b, 0x04, 0xf2, 0x15, 0x09, 0x02, 0x02, 0xfd, 0xf8,
  0xf6, 0x07, 0xf6, 0xff, 0xec, 0xf9, 0x00, 0xff, 0xff, 0xf5, 0xff, 0xf1,
  0x02, 0xe4, 0xfc, 0xff, 0xe9, 0x13, 0xf2, 0xfe, 0xf5, 0x09, 0xff, 0xf0,
  0xfd, 0xfb, 0xf9, 0xf8, 0xf8, 0xfa, 0xf5, 0x07, 0x04, 0x06, 0x09, 0xef,
  0x02, 0x14, 0x0c, 0xfc, 0x07, 0x17, 0xf2, 0x05, 0x02, 0xe1, 0xfe, 0xf9,
  0x01, 0x13, 0xfd, 0x14, 0x0f, 0x11, 0xf1, 0x07, 0xfe, 0xfe, 0xf6, 0x07,
  0x19, 0x23, 0x09, 0xb8, 0x1e, 0x21, 0x19, 0x0f, 0x0d, 0xf2, 0xf4, 0x06,
  0x14, 0x03, 0x10, 0x01, 0xf7, 0xfb, 0x19, 0xee, 0x06, 0x05, 0x04, 0x07,
  0xf7, 0x09, 0x03, 0x0b, 0x24, 0x1d, 0x0d, 0x07, 0xf7, 0x05, 0xe0, 0xc0,
  0x01, 0x1a, 0x0b, 0x11, 0x02, 0x09, 0xf3, 0xf9, 0xfe, 0xf1, 0xec, 0xf5,
  0xf0, 0xe3, 0xfa, 0x89, 0xfb, 0x11, 0x0c, 0x15, 0x0d, 0xfc, 0x05, 0xd7,
  0xe1, 0x19, 0x0e, 0x0b, 0x00, 0x11, 0xf1, 0x06, 0x05, 0xf1, 0x07, 0x03,
  0xf0, 0x14, 0x03, 0x12, 0xf9, 0xfd, 0x14, 0x05, 0xf4, 0xf1, 0x17, 0xe9,
  0xfc, 0x11, 0x1a, 0x0a, 0xff, 0x03, 0x11, 0xe8, 0xf0, 0xfa, 0x17, 0xf4,
  0xf9, 0xf1, 0xf5, 0xeb, 0x00, 0x05, 0x19, 0xf7, 0xdb, 0x02, 0x01, 0xeb,
  0x01, 0xf6, 0xf8, 0xf5, 0xdc, 0xf3, 0xf6, 0xf8, 0xe7, 0xf5, 0xf6, 0x07,
  0xf5, 0xf3, 0x25, 0xf6, 0xf5, 0x09, 0x05, 0x04, 0x21, 0x0e, 0x14, 0xd0,
  0xe9, 0x12, 0xd5, 0x03, 0x00, 0xfc, 0xee, 0xf8, 0xe5, 0xf4, 0xef, 0xf3,
  0xf9, 0xec, 0xf3, 0xd9, 0xee, 0xf4, 0xfa, 0xbd, 0xd9, 0xda, 0xfd, 0xba,
  0xa3, 0xf1, 0x0d, 0xfb, 0xe8, 0x08, 0xd7, 0xed, 0xda, 0xf2, 0xc6, 0x21,
  0xee, 0xdb, 0xd4, 0x09, 0xe4, 0xb2, 0xdd, 0xcc, 0xf8, 0xd7, 0xe5, 0xdc,
  0xfb, 0x0b, 0x0c, 0x1c, 0xc2, 0xe9, 0xe2, 0xdf, 0xc2, 0xee, 0xe9, 0xc9,
  0xf4, 0x08, 0xed, 0xfb, 0xf5, 0xf4, 0xd9, 0x04, 0xf1, 0xe8, 0x07, 0xe8,
  0xf4, 0xf2, 0xe5, 0xfb, 0x09, 0xfa, 0xf2, 0xed, 0x04, 0xd2, 0xf2, 0xe9,
  0xfa, 0xf4, 0xec, 0xe6, 0xe8, 0xe1, 0x16, 0xdf, 0xe9, 0xf3, 0xec, 0xf5,
  0x07, 0x1b, 0x0c, 0xd5, 0xf0, 0xf5, 0x0a, 0x15, 0xfa, 0xfa, 0xfd, 0xf9,
  0xf3, 0xf4, 0x05, 0x0a, 0xe7, 0x0d, 0xf3, 0x03, 0x16, 0xed, 0xed, 0x02,
  0xf2, 0x01, 0xfe, 0xe1, 0xfe, 0xff, 0xfd, 0x01, 0x07, 0x18, 0xd9, 0x13,
  0x07, 0x18, 0x03, 0xfe, 0xf8, 0xf6, 0xe0, 0xec, 0xef, 0xf6, 0xf5, 0x03,
  0xef, 0xe9, 0x2c, 0xf5, 0x19, 0xdc, 0xf0, 0xdc, 0x06, 0x06, 0xfb, 0xdc,
  0xfb, 0xe9, 0xeb, 0xfa, 0xdf, 0xf3, 0xce, 0xfc, 0xee, 0xe9, 0xe3, 0xea,
  0xf5, 0xec, 0xf4, 0xfc, 0xf6, 0xe1, 0xd6, 0x02, 0xe1, 0x11, 0xff, 0xe9,
  0x05, 0xf8, 0xf9, 0xe5, 0xe4, 0x0d, 0xe6, 0xe7, 0x01, 0xf4, 0xee, 0xf5,
  0xf0, 0xf8, 0xf7, 0xf8, 0xe8, 0xf8, 0x0d, 0xf0, 0xf6, 0xfa, 0x04, 0x02,
  0xfe, 0xf2, 0xfc, 0xea, 0xfc, 0xf7, 0xfe, 0x07, 0x06, 0x08, 0xfc, 0xe2,
  0xec, 0xfe, 0xe6, 0xff, 0x1c, 0xfc, 0x0f, 0xf7, 0x22, 0xe6, 0x16, 0x0a,
  0x28, 0x0e, 0xfc, 0x1c, 0xff, 0x04, 0xff, 0xfd, 0x0d, 0x1d, 0x0d, 0x12,
  0x11, 0xe9, 0x0b, 0x04, 0xfe, 0x1f, 0x9f, 0x04, 0xfb, 0x2c, 0x06, 0xed,
  0xed, 0x11, 0x34, 0x13, 0xb4, 0x05, 0xf9, 0x12, 0x06, 0x1a, 0xfd, 0x1e,
  0x0d, 0x05, 0xd0, 0xf2, 0xeb, 0xbd, 0xff, 0xec, 0xf8, 0xef, 0xe3, 0xf2,
  0xf0, 0x06, 0xec, 0x15, 0xbb, 0xf2, 0x0a, 0xea, 0xe4, 0x43, 0xfa, 0xc5,
  0xbf, 0x1a, 0xe4, 0x29, 0x06, 0xdc, 0xfb, 0x0a, 0x30, 0x03, 0x1e, 0x08,
  0xf3, 0xeb, 0x08, 0xe2, 0xe9, 0x0f, 0x10, 0xef, 0xe5, 0x09, 0x1b, 0xdc,
  0x3e, 0x03, 0x4c, 0xe9, 0xf1, 0x0b, 0x02, 0xfa, 0x05, 0x15, 0xfc, 0x09,
  0x05, 0xf3, 0x0f, 0xe2, 0x25, 0x05, 0xe6, 0xfe, 0xfa, 0x15, 0x05, 0x04,
  0x06, 0xf7, 0x08, 0xcf, 0x0f, 0xf9, 0xe6, 0x19, 0x0c, 0xf5, 0x0c, 0x06,
  0x0b, 0x19, 0x04, 0xfd, 0x0f, 0xd6, 0x11, 0x00, 0xe8, 0xf5, 0x02, 0xe3,
  0x0a, 0x11, 0xf2, 0x0f, 0xf4, 0x18, 0x00, 0x13, 0xff, 0xe1, 0xfe, 0xf7,
  0x07, 0x02, 0x0d, 0xfc, 0x0a, 0x0d, 0xfc, 0x10, 0x03, 0xfa, 0x10, 0xc1,
  0x03, 0x10, 0x03, 0x01, 0xf3, 0x0c, 0x0c, 0xf9, 0xe9, 0x01, 0xf8, 0xfc,
  0x02, 0x15, 0x02, 0xee, 0x22, 0x18, 0x1a, 0x01, 0xee, 0xe8, 0x07, 0x25,
  0xf5, 0xf4, 0x13, 0x12, 0xca, 0xea, 0xfb, 0xc6, 0x15, 0x2c, 0x07, 0x08,
  0xdc, 0xee, 0xee, 0xf0, 0xe5, 0xee, 0x18, 0x06, 0x10, 0x09, 0xf8, 0xa9,
  0xf6, 0xf8, 0xed, 0x0e, 0x1e, 0xfa, 0xf9, 0x9a, 0x93, 0x0a, 0xfa, 0x0e,
  0xdb, 0xe6, 0x1e, 0x0a, 0xfb, 0xfc, 0xf3, 0xe6, 0x09, 0xfd, 0xf4, 0xee,
  0xf9, 0x07, 0x0e, 0xf4, 0x04, 0xf7, 0xdd, 0x14, 0x10, 0xae, 0xfb, 0x11,
  0xe2, 0x15, 0x01, 0x0d, 0x03, 0xdf, 0xf5, 0x08, 0xed, 0x0b, 0x10, 0xf8,
  0xf4, 0x06, 0x04, 0xeb, 0xfa, 0xf6, 0x02, 0x0b, 0xed, 0x08, 0xfd, 0xf5,
  0xee, 0x19, 0xe8, 0xf8, 0xf7, 0xf5, 0xed, 0xf6, 0xf6, 0xea, 0x06, 0xf9,
  0x04, 0x06, 0xf4, 0x01, 0x08, 0x00, 0xe4, 0x13, 0xf8, 0xff, 0xcd, 0x01,
  0x04, 0xf7, 0x01, 0x09, 0x03, 0xf6, 0x13, 0x04, 0x0e, 0xe4, 0x01, 0xea,
  0xea, 0xf7, 0xe6, 0xdd, 0xf8, 0xf4, 0xef, 0x00, 0x05, 0x02, 0x05, 0xe6,
  0xe9, 0xf4, 0xef, 0xfa, 0xf2, 0xdd, 0xe8, 0x02, 0x0d, 0x19, 0x03, 0xf5,
  0xf2, 0xf5, 0xdd, 0x07, 0x07, 0x02, 0xe8, 0x0f, 0x0d, 0xff, 0xf7, 0x0f,
  0x13, 0x1d, 0xee, 0xf2, 0xf5, 0x10, 0xec, 0x08, 0xf6, 0xdb, 0x02, 0x18,
  0xee, 0x10, 0x0a, 0xe4, 0x03, 0xf1, 0x14, 0xff, 0xf8, 0x05, 0x0a, 0x05,
  0xf7, 0xfb, 0xf0, 0x08, 0x04, 0xec, 0xf6, 0x0f, 0xef, 0xfb, 0xfd, 0x05,
  0x0b, 0xed, 0xf3, 0xfd, 0xf4, 0x07, 0x04, 0x08, 0x0a, 0xf3, 0x10, 0xe6,
  0x07, 0xf1, 0xf0, 0xe1, 0x00, 0x1a, 0x0c, 0x13, 0x0b, 0x0b, 0xfc, 0x08,
  0x09, 0x00, 0xde, 0xfb, 0x13, 0xf9, 0x19, 0x10, 0x06, 0xe7, 0x08, 0x0a,
  0xeb, 0xf0, 0x07, 0x12, 0x00, 0xe5, 0xda, 0xdf, 0xf9, 0xee, 0x00, 0xfc,
  0xfe, 0x0a, 0x11, 0xf8, 0x01, 0x11, 0xef, 0xfa, 0x06, 0x08, 0xeb, 0xe8,
  0x14, 0x19, 0xf0, 0xe2, 0xf5, 0xfb, 0xf5, 0xf4, 0x04, 0x14, 0xfa, 0x11,
  0xf8, 0xd6, 0xd7, 0xd9, 0xfe, 0xf1, 0xfe, 0x02, 0x16, 0xfc, 0xff, 0x07,
  0x09, 0xfd, 0xff, 0xe8, 0xf8, 0x04, 0xf7, 0x00, 0xfe, 0xfb, 0xf7, 0x14,
  0xf1, 0xc2, 0x17, 0xfd, 0x03, 0x0e, 0x0b, 0x17, 0x15, 0x0c, 0x1b, 0x00,
  0x07, 0xfd, 0x10, 0x0f, 0x12, 0x16, 0x01, 0x08, 0xf6, 0x14, 0xeb, 0x12,
  0x12, 0x04, 0xf8, 0xf6, 0x0d, 0xfd, 0x18, 0x1a, 0x15, 0x11, 0x1a, 0x0d,
  0x0a, 0xc3, 0xf9, 0x03, 0xf3, 0x07, 0xf8, 0x04, 0xf2, 0x08, 0xfd, 0xfc,
  0x0b, 0x0a, 0x08, 0x05, 0x04, 0x1a, 0xe6, 0x0b, 0x1c, 0xde, 0x07, 0xf9,
  0x0a, 0xeb, 0xaa, 0x08, 0xf6, 0xea, 0xf0, 0x00, 0x15, 0x21, 0x02, 0x0e,
  0x02, 0x07, 0x0f, 0x1e, 0x1b, 0x09, 0x0e, 0x03, 0xf9, 0x0c, 0xda, 0xe3,
  0x03, 0xff, 0x1a, 0xfb, 0xe9, 0xf5, 0xf2, 0x0d, 0xef, 0xf5, 0x1e, 0x11,
  0xca, 0x12, 0x18, 0x06, 0x06, 0x2b, 0xf3, 0x16, 0xe3, 0xfc, 0xed, 0x13,
  0xec, 0x09, 0xef, 0x02, 0x1f, 0x04, 0x0e, 0x1c, 0xdf, 0xf9, 0x0e, 0xe5,
  0x1c, 0x0f, 0x00, 0xf5, 0xff, 0x0c, 0x09, 0xe0, 0x40, 0x17, 0x1d, 0xfd,
  0xf1, 0xe4, 0x05, 0x02, 0xfd, 0xfb, 0xed, 0xf7, 0xf7, 0xed, 0x03, 0xe7,
  0xea, 0x05, 0xe7, 0x04, 0xe7, 0xe6, 0xd7, 0x07, 0xee, 0xf3, 0xe2, 0xea,
  0xe9, 0xfb, 0xda, 0xf7, 0x10, 0xef, 0x0c, 0xe8, 0xea, 0xda, 0x08, 0xee,
  0x05, 0xb8, 0xf0, 0xf0, 0x22, 0x07, 0x0e, 0x1d, 0x05, 0x05, 0x03, 0xfb,
  0x15, 0x14, 0x01, 0x03, 0x20, 0x0e, 0xf1, 0x07, 0xff, 0xf0, 0xc1, 0x08,
  0x03, 0xf1, 0xfa, 0xef, 0x0f, 0xe0, 0xee, 0xd3, 0xc2, 0xf0, 0xee, 0x07,
  0xf2, 0xed, 0xec, 0xed, 0xc5, 0xe4, 0x04, 0xfd, 0xde, 0xe1, 0xf0, 0xd9,
  0xca, 0xe7, 0xff, 0xfa, 0x03, 0xde, 0xbd, 0xf5, 0xf4, 0xf5, 0xb6, 0x10,
  0x08, 0x1a, 0xff, 0xe4, 0xe5, 0x14, 0xf9, 0xdc, 0xe2, 0xcd, 0xe9, 0xf5,
  0xfe, 0xc3, 0x03, 0xd4, 0x0b, 0xf9, 0xed, 0xe6, 0xe5, 0xf2, 0xf4, 0x0d,
  0xf2, 0xee, 0xe3, 0xf8, 0xc2, 0xe8, 0xea, 0xf6, 0xf6, 0xfb, 0xf0, 0xef,
  0x01, 0x00, 0xfb, 0xf0, 0x00, 0xef, 0xfd, 0x03, 0x05, 0xeb, 0x16, 0xf3,
  0x14, 0x00, 0xf1, 0xf8, 0x10, 0xef, 0x03, 0x20, 0xe5, 0x0f, 0x0e, 0x00,
  0x02, 0xef, 0xed, 0xf0, 0x0f, 0x04, 0xfb, 0x03, 0xfd, 0xea, 0x02, 0x03,
  0xfe, 0x03, 0x0f, 0xd5, 0x0e, 0x0c, 0xf5, 0xed, 0x03, 0xff, 0x02, 0x05,
  0x02, 0x00, 0x0a, 0xe5, 0xf8, 0xfb, 0xf4, 0xf6, 0xf8, 0x00, 0x04, 0x1f,
  0xfa, 0x06, 0x1c, 0x23, 0x06, 0x14, 0x14, 0xf3, 0x0c, 0x0f, 0xfd, 0x07,
  0xdd, 0x09, 0x14, 0xf2, 0x17, 0x09, 0xf4, 0x16, 0xf2, 0x10, 0xf4, 0x13,
  0x11, 0x1d, 0x0e, 0xf0, 0xff, 0xef, 0x01, 0xf8, 0x05, 0xfc, 0xfb, 0x03,
  0x13, 0x2b, 0x19, 0xf9, 0x1b, 0x0c, 0x01, 0x07, 0x0d, 0x15, 0x1e, 0x02,
  0xeb, 0x14, 0xf1, 0x0a, 0x00, 0x05, 0x04, 0x28, 0x10, 0x06, 0x00, 0x37,
  0xd8, 0xea, 0x07, 0x04, 0xf5, 0xe3, 0x08, 0x05, 0xff, 0xfe, 0x02, 0x12,
  0x02, 0x14, 0xfa, 0xdf, 0xf6, 0x05, 0xe7, 0xef, 0xf2, 0x01, 0xce, 0xf9,
  0x04, 0xec, 0xeb, 0xee, 0x02, 0xfe, 0xdb, 0x03, 0xff, 0xff, 0x06, 0x04,
  0xe9, 0xff, 0x0e, 0xf8, 0x0c, 0x0a, 0x03, 0x17, 0xff, 0xf7, 0xf8, 0xfb,
  0x0a, 0x08, 0xfb, 0xee, 0x06, 0x2d, 0xe4, 0xf6, 0x09, 0x02, 0xf5, 0xdc,
  0xf8, 0x00, 0x01, 0xf5, 0x0a, 0x00, 0xec, 0xfe, 0xf8, 0xfe, 0x08, 0xff,
  0x11, 0x08, 0x24, 0x03, 0xff, 0x00, 0x02, 0x0d, 0x00, 0x0d, 0x04, 0xf1,
  0xfa, 0x02, 0x03, 0x0f, 0xf7, 0x17, 0xea, 0xe5, 0x0c, 0x13, 0xff, 0x43,
  0x19, 0x00, 0x01, 0x0e, 0xed, 0xeb, 0x09, 0x01, 0xf1, 0xfb, 0x38, 0xf4,
  0x02, 0x15, 0x05, 0xec, 0xfe, 0x2a, 0xcf, 0xe6, 0xf4, 0xf5, 0x0b, 0x1b,
  0xf8, 0xfa, 0x03, 0xfb, 0xf6, 0xf3, 0x03, 0x07, 0x2d, 0x00, 0x00, 0x0c,
  0xf2, 0xf4, 0x08, 0xff, 0xfa, 0xc1, 0x07, 0xd5, 0xf1, 0xdb, 0xfd, 0xfb,
  0x06, 0xfd, 0xeb, 0xf4, 0xeb, 0x04, 0xfd, 0x02, 0xfe, 0xc8, 0xdf, 0x07,
  0xe8, 0xf5, 0x04, 0xf7, 0xf8, 0xe9, 0x01, 0xf1, 0xd2, 0x0c, 0x19, 0xf7,
  0xef, 0x0f, 0x0c, 0xe5, 0xcf, 0x0b, 0x05, 0xcf, 0x0f, 0xdd, 0x27, 0xf0,
  0xfc, 0xc6, 0xd3, 0xfd, 0xb9, 0x2c, 0x05, 0xf9, 0xf2, 0xcd, 0x5d, 0xfa,
  0xfd, 0xad, 0xd9, 0x15, 0x05, 0x00, 0xf1, 0x0a, 0xf9, 0x17, 0xf2, 0xed,
  0xfe, 0xf9, 0xf2, 0xef, 0xfe, 0xf2, 0xf9, 0x14, 0xf9, 0xcc, 0xfa, 0xef,
  0xfa, 0x06, 0xfa, 0xfd, 0x01, 0xfe, 0x1c, 0xf9, 0xf4, 0xf9, 0xdd, 0xe5,
  0x09, 0x1d, 0x08, 0x25, 0x05, 0x08, 0x00, 0xe4, 0x2f, 0x02, 0x05, 0x12,
  0x30, 0x1d, 0xf2, 0x10, 0x04, 0x03, 0xf3, 0x2f, 0x12, 0xf2, 0x09, 0x00,
  0xfd, 0xf5, 0x27, 0x4f, 0xf4, 0xeb, 0xfd, 0xfc, 0xeb, 0xfe, 0x05, 0x07,
  0x09, 0xf4, 0xe2, 0xd8, 0x0f, 0x04, 0x04, 0x0f, 0x1e, 0x05, 0x09, 0x10,
  0xf6, 0xfb, 0xf6, 0x0c, 0x0f, 0xe1, 0x0b, 0xef, 0x16, 0xee, 0x0f, 0x0b,
  0x14, 0xf2, 0x02, 0x02, 0xb3, 0x10, 0xee, 0x1a, 0x00, 0x11, 0xf1, 0x08,
  0xd1, 0xff, 0x1d, 0xc0, 0xfe, 0x10, 0x20, 0x0c, 0xf5, 0xa1, 0x02, 0xf1,
  0xa2, 0x18, 0xe0, 0xf4, 0x06, 0xeb, 0x2e, 0xfa, 0x13, 0xca, 0x17, 0x11,
  0xec, 0xd6, 0x06, 0x1e, 0x0b, 0xf8, 0xea, 0xe3, 0xfb, 0xf9, 0xfb, 0xf6,
  0xfe, 0xd7, 0xfe, 0xf2, 0xfa, 0xc0, 0xdb, 0x08, 0xf9, 0x02, 0xde, 0xf4,
  0xfc, 0x15, 0xdd, 0xe0, 0xfc, 0x13, 0xf3, 0x05, 0x10, 0x11, 0x1e, 0x05,
  0x16, 0x3d, 0x1c, 0x03, 0x14, 0x15, 0x06, 0x1a, 0x29, 0x3c, 0x03, 0x18,
  0x02, 0x12, 0x06, 0xe6, 0x08, 0x06, 0x05, 0x1d, 0xf6, 0x03, 0x07, 0x1f,
  0x12, 0x08, 0x11, 0x11, 0xec, 0x10, 0x01, 0x07, 0xf9, 0xfb, 0x1a, 0x0e,
  0xfe, 0x0d, 0xe9, 0x09, 0x10, 0x15, 0x0b, 0xfe, 0x04, 0xf5, 0xfc, 0xef,
  0x07, 0x0a, 0xf7, 0x25, 0x0d, 0xf7, 0x0f, 0x0e, 0x16, 0xe8, 0xf0, 0x07,
  0xd0, 0x0e, 0xfb, 0x00, 0xf9, 0x1a, 0xff, 0xfe, 0xef, 0x00, 0xf5, 0x04,
  0xf4, 0xf4, 0x0f, 0x01, 0xfc, 0xdd, 0x11, 0x0f, 0xf6, 0x02, 0xe1, 0xfc,
  0x03, 0xea, 0x00, 0x0b, 0x04, 0xf6, 0xf6, 0xf0, 0xf5, 0x01, 0xf3, 0xcc,
  0xf6, 0xe3, 0x00, 0xec, 0xe8, 0xf0, 0x01, 0xdd, 0xfa, 0x10, 0xfc, 0x09,
  0xf8, 0x26, 0xf2, 0x15, 0x1f, 0x02, 0xe5, 0xe0, 0xf1, 0x02, 0xdb, 0x34,
  0xfe, 0xfb, 0xe6, 0x0a, 0xfe, 0xf6, 0x05, 0x33, 0xf7, 0x07, 0xd9, 0xff,
  0xf6, 0xdf, 0xf2, 0xf9, 0x0d, 0x08, 0xe7, 0xf1, 0xf8, 0xf0, 0xf2, 0xf1,
  0xdc, 0xe3, 0xf2, 0xf4, 0xd7, 0xd3, 0x05, 0x15, 0xf7, 0xf2, 0xfd, 0xe8,
  0xe7, 0xf2, 0x0c, 0x0a, 0x07, 0xfc, 0xe9, 0x08, 0x15, 0x0f, 0xf5, 0xf4,
  0x0d, 0x0c, 0xec, 0xfb, 0x03, 0xfc, 0xcf, 0x20, 0x19, 0xff, 0xff, 0xec,
  0xe7, 0x1d, 0xdc, 0x0e, 0x0c, 0xea, 0x04, 0xf6, 0xf4, 0x13, 0x09, 0x05,
  0x00, 0xee, 0x12, 0xf1, 0x0c, 0x00, 0x05, 0xd3, 0x05, 0xfa, 0x06, 0x17,
  0x0b, 0x06, 0xe5, 0x14, 0x06, 0xf4, 0xe0, 0xfa, 0x01, 0xf4, 0x0c, 0x15,
  0x1b, 0xf8, 0x10, 0x01, 0xf5, 0x06, 0x0f, 0x10, 0x1f, 0xd6, 0xb9, 0xd9,
  0xf9, 0xdf, 0xfd, 0xe9, 0xfb, 0x14, 0x2c, 0x20, 0x0b, 0x0b, 0x0d, 0xf3,
  0x07, 0x21, 0xea, 0xe6, 0x1b, 0x23, 0xd0, 0x01, 0x06, 0xbb, 0x00, 0xfc,
  0xfc, 0xf1, 0x18, 0x1a, 0xfc, 0xf5, 0xe6, 0x04, 0x17, 0xf2, 0x03, 0xf7,
  0x0d, 0xf2, 0xfc, 0x2a, 0x03, 0x02, 0xdc, 0xed, 0x0a, 0xf4, 0x0b, 0x01,
  0xf4, 0xfe, 0xf2, 0x1b, 0xe8, 0x02, 0xfc, 0x0c, 0xfa, 0x08, 0x0a, 0x16,
  0x07, 0xdf, 0x03, 0xf8, 0x00, 0xf4, 0x06, 0xf4, 0xff, 0x0d, 0x05, 0x14,
  0xe7, 0x1c, 0xf2, 0x08, 0x11, 0xdd, 0xec, 0xf1, 0x01, 0x03, 0xe8, 0x0f,
  0x1b, 0xf5, 0x17, 0x01, 0xf2, 0x24, 0xf7, 0xe7, 0x0f, 0x01, 0xfe, 0x08,
  0xf6, 0xc7, 0xe7, 0x17, 0xe6, 0x07, 0xd3, 0xf7, 0xf5, 0x12, 0x0b, 0xf8,
  0x09, 0xb4, 0xfa, 0xe6, 0xe3, 0xdf, 0xbc, 0x06, 0x0b, 0xfc, 0x32, 0x0f,
  0xf4, 0xd4, 0xd3, 0xc3, 0xe9, 0xbd, 0xf2, 0xef, 0x03, 0xe2, 0xfa, 0x14,
  0xf1, 0xe4, 0xe5, 0x07, 0x08, 0xf2, 0x12, 0xfb, 0x04, 0xf7, 0x12, 0xe4,
  0x04, 0xe0, 0xc7, 0xfd, 0x23, 0x0e, 0x18, 0xff, 0xde, 0xe1, 0xe2, 0xdb,
  0xe0, 0xf9, 0x0b, 0xe3, 0xd8, 0xdd, 0x17, 0x06, 0xf4, 0x14, 0xdf, 0xde,
  0xfe, 0x02, 0x16, 0xd4, 0xf4, 0x07, 0x04, 0x04, 0x00, 0xed, 0xc0, 0xf2,
  0x9f, 0xe9, 0xdc, 0xfb, 0xf4, 0xd0, 0x0d, 0x03, 0xf7, 0xfd, 0x00, 0xd9,
  0x02, 0x14, 0x02, 0x01, 0xf6, 0xfb, 0xf0, 0xfc, 0xec, 0xff, 0xeb, 0x0b,
  0x07, 0xd1, 0xe3, 0xfc, 0xea, 0x01, 0x09, 0x07, 0xed, 0xd7, 0xfa, 0xf0,
  0x14, 0xe5, 0x02, 0x09, 0xf1, 0xf4, 0xf7, 0xf1, 0x0a, 0xe1, 0xeb, 0xee,
  0xfc, 0x03, 0x0a, 0xdf, 0x11, 0x1c, 0xff, 0xfd, 0xf7, 0xee, 0xf0, 0x10,
  0xf4, 0xe6, 0x25, 0x0b, 0xff, 0xf0, 0xda, 0xdf, 0xfb, 0xe7, 0xda, 0xef,
  0xc4, 0xdb, 0x0c, 0x0a, 0x16, 0x05, 0xf4, 0xee, 0xfa, 0xee, 0xf9, 0xfb,
  0x0f, 0x00, 0xeb, 0x0c, 0xf4, 0xfb, 0x12, 0x03, 0xf5, 0x20, 0x25, 0xe6,
  0x04, 0x0b, 0xe5, 0xf3, 0xf3, 0xdd, 0x23, 0x10, 0x07, 0xf1, 0xf5, 0xf7,
  0x0a, 0xcc, 0xf9, 0xef, 0xc7, 0x1f, 0xf5, 0xc6, 0x06, 0xfe, 0x12, 0x30,
  0xe7, 0xee, 0xf0, 0xf1, 0xe6, 0x11, 0xee, 0x20, 0x45, 0x03, 0xe0, 0x1a,
  0xe8, 0xce, 0x06, 0x0d, 0xe2, 0xfc, 0xe6, 0xda, 0x0f, 0x04, 0xf8, 0xf6,
  0xee, 0xf9, 0xf1, 0xf5, 0xde, 0xf8, 0xcb, 0x11, 0xec, 0xb7, 0xf4, 0xdf,
  0xd6, 0xf8, 0xe6, 0xf9, 0xec, 0xc3, 0xf0, 0xf3, 0x03, 0xfc, 0x04, 0x14,
  0xfa, 0xe5, 0x15, 0x00, 0x17, 0x11, 0x10, 0x0a, 0xfb, 0x06, 0xf3, 0x0f,
  0x07, 0x19, 0x06, 0x0e, 0xfb, 0xea, 0x08, 0x14, 0x11, 0x15, 0x06, 0x0c,
  0xf3, 0x05, 0xfe, 0x12, 0x17, 0x08, 0x03, 0x15, 0xf9, 0x06, 0xfa, 0x23,
  0xf4, 0xfd, 0x1b, 0x16, 0xeb, 0xf0, 0xe3, 0x0e, 0xd9, 0x00, 0x1b, 0x07,
  0x06, 0x20, 0x1b, 0x08, 0x07, 0xf1, 0xf6, 0xd3, 0x2a, 0x07, 0x01, 0x01,
  0x06, 0x01, 0xe7, 0xf1, 0xf9, 0xf3, 0x0a, 0x02, 0xee, 0xe9, 0xe8, 0x20,
  0xeb, 0xd0, 0x02, 0x06, 0x12, 0x00, 0x0b, 0x43, 0xf2, 0x18, 0x12, 0x06,
  0x08, 0x03, 0x00, 0xfd, 0x2a, 0x1a, 0xf0, 0xfd, 0xff, 0xf5, 0x0d, 0xed,
  0xe8, 0xfd, 0x04, 0xee, 0xf0, 0x08, 0x05, 0xef, 0xe7, 0xff, 0x17, 0xed,
  0xf1, 0x06, 0xe8, 0x11, 0xf7, 0xdd, 0xff, 0xf5, 0xf4, 0xf2, 0xec, 0xed,
  0xf9, 0xdf, 0xeb, 0xf1, 0x00, 0x03, 0x05, 0xee, 0x0d, 0xfd, 0x07, 0x01,
  0x08, 0xfd, 0x0e, 0xfd, 0x0e, 0x05, 0x00, 0xfc, 0x0c, 0x06, 0x01, 0xf8,
  0x11, 0xf6, 0xfd, 0xfa, 0x0b, 0x14, 0xf7, 0x0e, 0xfc, 0x02, 0x07, 0x0d,
  0x13, 0x0f, 0xfb, 0xd4, 0x05, 0x0c, 0xfe, 0x0f, 0x12, 0x18, 0x10, 0x06,
  0xf8, 0x10, 0x05, 0xff, 0xf0, 0x07, 0xf7, 0xfc, 0xff, 0xf4, 0x19, 0xef,
  0x09, 0x01, 0x0a, 0x21, 0xf9, 0x12, 0x06, 0x18, 0xf4, 0x02, 0x07, 0xec,
  0x08, 0xfc, 0x31, 0x0e, 0x0f, 0xfe, 0x00, 0x10, 0x0f, 0x0f, 0xfe, 0xf4,
  0x0c, 0x14, 0xff, 0x1a, 0x0b, 0xfa, 0x10, 0x02, 0xf8, 0xf7, 0x1b, 0xfa,
  0x10, 0x13, 0xf6, 0xf7, 0xfc, 0xfa, 0x00, 0x0b, 0x08, 0xfe, 0x06, 0xf8,
  0x06, 0xeb, 0x06, 0xfa, 0x09, 0x04, 0x07, 0xfb, 0xfd, 0xfe, 0xed, 0x0d,
  0x0b, 0x0c, 0x09, 0xff, 0x03, 0xeb, 0x0d, 0xf1, 0xf2, 0xf7, 0xf9, 0x04,
  0xf6, 0xe2, 0xfb, 0xfd, 0xea, 0x00, 0xfb, 0x02, 0x0f, 0x0e, 0xff, 0x07,
  0x07, 0x11, 0xef, 0x08, 0xef, 0x18, 0x06, 0x0e, 0x20, 0xfb, 0x00, 0x11,
  0x13, 0x00, 0xc0, 0xff, 0xfb, 0xef, 0xcd, 0x0b, 0x0a, 0xfe, 0xf4, 0x10,
  0xfa, 0x32, 0xfc, 0xf5, 0x04, 0x06, 0x0c, 0x16, 0xee, 0x0f, 0xfe, 0x0e,
  0x02, 0x08, 0xfb, 0x01, 0xe2, 0x03, 0x10, 0x16, 0x06, 0xfc, 0x06, 0x06,
  0x19, 0xf6, 0x10, 0x06, 0x0a, 0xd8, 0xff, 0x1f, 0x05, 0xfe, 0x18, 0xf0,
  0xf7, 0x08, 0x08, 0x14, 0x01, 0xf7, 0xff, 0xf4, 0x04, 0x06, 0xf3, 0x4f,
  0x0b, 0xec, 0x07, 0x17, 0x04, 0x12, 0xfd, 0xd2, 0x07, 0xff, 0xc7, 0xfe,
  0xec, 0xeb, 0x0b, 0x0c, 0xf8, 0x0c, 0xfe, 0x17, 0x04, 0x12, 0xf8, 0xf2,
  0x03, 0x00, 0x14, 0x09, 0xfa, 0x0e, 0x08, 0x0c, 0x11, 0x13, 0x06, 0xfe,
  0xf2, 0x08, 0xf5, 0xf7, 0xf9, 0xf6, 0xf9, 0xff, 0x9f, 0x00, 0x15, 0x01,
  0x0c, 0xfe, 0x01, 0xe6, 0x12, 0xf8, 0xf0, 0x10, 0x11, 0xd6, 0x0d, 0xed,
  0xec, 0x31, 0xdb, 0xea, 0x05, 0xf8, 0xf7, 0xf9, 0xe3, 0xfd, 0xdf, 0x0c,
  0x04, 0x06, 0x09, 0xf2, 0xf9, 0x07, 0xec, 0xc7, 0x10, 0xf4, 0xef, 0x12,
  0xf6, 0x01, 0x12, 0xf0, 0x0e, 0xd8, 0x02, 0x06, 0x20, 0xff, 0x16, 0xe6,
  0x03, 0x0d, 0xf1, 0xe7, 0xff, 0x0d, 0xcb, 0xb8, 0x0d, 0x11, 0x14, 0xf5,
  0xf5, 0xe2, 0x13, 0x3a, 0xf8, 0xdf, 0xec, 0xf2, 0xf2, 0xfd, 0xff, 0xfc,
  0xe3, 0x0a, 0xe8, 0x03, 0xea, 0xfe, 0x0c, 0x4c, 0xfb, 0xf4, 0xef, 0xcf,
  0x01, 0xf6, 0xf3, 0x19, 0x28, 0x02, 0x06, 0x06, 0xec, 0xeb, 0xfd, 0x04,
  0xf4, 0x0f, 0xea, 0xed, 0x03, 0xf8, 0xf5, 0xf4, 0x02, 0x01, 0xdd, 0x01,
  0xf9, 0xec, 0xda, 0x03, 0xf7, 0xf8, 0xed, 0xe3, 0x08, 0xfe, 0xe7, 0xf9,
  0xf9, 0xfa, 0x08, 0xe6, 0xe4, 0xf2, 0xc7, 0xff, 0xef, 0xf9, 0x12, 0xed,
  0xf2, 0x0d, 0x17, 0xd4, 0x06, 0xfa, 0xf1, 0xf4, 0x19, 0xba, 0xd6, 0xfb,
  0xd0, 0xe6, 0xf1, 0xef, 0x18, 0xe9, 0x09, 0xe6, 0xf6, 0xc4, 0xf0, 0xf3,
  0xe8, 0xd5, 0xf8, 0xc0, 0x09, 0xee, 0xf4, 0x06, 0x04, 0x00, 0xfe, 0xfd,
  0xe6, 0xe4, 0xfb, 0x02, 0xe1, 0xe4, 0xc8, 0xd8, 0xfe, 0x03, 0xff, 0x05,
  0x10, 0x14, 0xff, 0xae, 0x03, 0xf0, 0xf3, 0xf4, 0x18, 0xf8, 0x08, 0x07,
  0x11, 0xf2, 0xed, 0xe1, 0x11, 0x06, 0x0a, 0xf3, 0xee, 0xee, 0x24, 0x0a,
  0x07, 0x0d, 0xf4, 0xd2, 0xf7, 0xe7, 0xf7, 0xef, 0xef, 0x0f, 0xf5, 0x23,
  0xc6, 0xe9, 0xf9, 0xfa, 0xf8, 0xc8, 0x0b, 0xf4, 0xea, 0xee, 0xef, 0xdb,
  0xf7, 0xe0, 0xf7, 0xda, 0xfd, 0xff, 0xf4, 0xe8, 0xd9, 0xf9, 0xe6, 0x13,
  0x0a, 0xe4, 0xd8, 0xdc, 0xdc, 0x01, 0xe5, 0xf0, 0xf8, 0xe2, 0xcd, 0xec,
  0xff, 0xf5, 0x0b, 0xf5, 0x04, 0xda, 0xfc, 0xe4, 0x06, 0xdd, 0xf4, 0x04,
  0xf8, 0xf9, 0xf9, 0xfc, 0xff, 0xf8, 0xe3, 0x00, 0x04, 0x01, 0xfe, 0x03,
  0xe3, 0xf0, 0xf8, 0xef, 0xed, 0xe6, 0xf8, 0xf5, 0xfa, 0xf6, 0xec, 0xf8,
  0xf4, 0xd5, 0xe5, 0xdb, 0xed, 0xe7, 0xe8, 0xfa, 0xfc, 0xee, 0xf7, 0xfe,
  0x04, 0xf0, 0xfe, 0xfb, 0xff, 0xf1, 0xd5, 0xf8, 0xe8, 0xfc, 0xcc, 0xf8,
  0xf3, 0xf3, 0x00, 0xfb, 0xf6, 0x0e, 0x06, 0xfc, 0xfe, 0xe8, 0xef, 0xe1,
  0x03, 0xfb, 0x01, 0xf4, 0x08, 0xf3, 0xf8, 0x0a, 0xfa, 0x05, 0xf1, 0xf6,
  0xf6, 0x11, 0xec, 0xef, 0x04, 0x01, 0xf6, 0x03, 0xfa, 0xda, 0xf3, 0x10,
  0x01, 0x08, 0x0a, 0xff, 0x08, 0xec, 0x0f, 0x02, 0x05, 0xf5, 0xe7, 0xec,
  0xed, 0x0d, 0x0b, 0xfd, 0xef, 0xf5, 0xf7, 0xfa, 0xf5, 0xf2, 0x09, 0xf5,
  0xed, 0xf6, 0x0c, 0xef, 0xf9, 0xe9, 0xf8, 0xfc, 0x1a, 0xff, 0xff, 0xff,
  0x04, 0x00, 0x00, 0x00, 0x28, 0x00, 0x00, 0x00, 0x2b, 0x00, 0x00, 0x00,
  0xfa, 0xff, 0xff, 0xff, 0xe2, 0xff, 0xff, 0xff, 0xaf, 0xff, 0xff, 0xff,
  0xdd, 0xff, 0xff, 0xff, 0x3c, 0x00, 0x00, 0x00, 0xed, 0xff, 0xff, 0xff,
  0x3b, 0x00, 0x00, 0x00, 0x04, 0x00, 0x00, 0x00, 0xff, 0xff, 0xff, 0xff,
  0x4e, 0xff, 0xff, 0xff, 0x04, 0x00, 0x00, 0x00, 0x08, 0x00, 0x00, 0x00,
  0xff, 0xff, 0xff, 0xff, 0x00, 0x02, 0x00, 0x00, 0x30, 0xf1, 0xff, 0xff,
  0x34, 0xf1, 0xff, 0xff, 0x0f, 0x00, 0x00, 0x00, 0x4d, 0x4c, 0x49, 0x52,
  0x20, 0x43, 0x6f, 0x6e, 0x76, 0x65, 0x72, 0x74, 0x65, 0x64, 0x2e, 0x00,
  0x01, 0x00, 0x00, 0x00, 0x14, 0x00, 0x00, 0x00, 0x00, 0x00, 0x0e, 0x00,
  0x18, 0x00, 0x14, 0x00, 0x10, 0x00, 0x0c, 0x00, 0x08, 0x00, 0x04, 0x00,
  0x0e, 0x00, 0x00, 0x00, 0x14, 0x00, 0x00, 0x00, 0x1c, 0x00, 0x00, 0x00,
  0xc0, 0x01, 0x00, 0x00, 0xc4, 0x01, 0x00, 0x00, 0xc8, 0x01, 0x00, 0x00,
  0x04, 0x00, 0x00, 0x00, 0x6d, 0x61, 0x69, 0x6e, 0x00, 0x00, 0x00, 0x00,
  0x06, 0x00, 0x00, 0x00, 0x5c, 0x01, 0x00, 0x00, 0x0c, 0x01, 0x00, 0x00,
  0xcc, 0x00, 0x00, 0x00, 0xa4, 0x00, 0x00, 0x00, 0x60, 0x00, 0x00, 0x00,
  0x14, 0x00, 0x00, 0x00, 0x00, 0x00, 0x0e, 0x00, 0x1a, 0x00, 0x14, 0x00,
  0x10, 0x00, 0x0c, 0x00, 0x0b, 0x00, 0x04, 0x00, 0x0e, 0x00, 0x00, 0x00,
  0x1c, 0x00, 0x00, 0x00, 0x00, 0x00, 0x00, 0x09, 0x1c, 0x00, 0x00, 0x00,
  0x20, 0x00, 0x00, 0x00, 0x03, 0x00, 0x00, 0x00, 0x00, 0x00, 0x06, 0x00,
  0x08, 0x00, 0x04, 0x00, 0x06, 0x00, 0x00, 0x00, 0x00, 0x00, 0x80, 0x3f,
  0x01, 0x00, 0x00, 0x00, 0x0f, 0x00, 0x00, 0x00, 0x01, 0x00, 0x00, 0x00,
  0x0e, 0x00, 0x00, 0x00, 0x00, 0x00, 0x0e, 0x00, 0x18, 0x00, 0x14, 0x00,
  0x10, 0x00, 0x0c, 0x00, 0x0b, 0x00, 0x04, 0x00, 0x0e, 0x00, 0x00, 0x00,
  0x14, 0x00, 0x00, 0x00, 0x00, 0x00, 0x00, 0x08, 0x10, 0x00, 0x00, 0x00,
  0x14, 0x00, 0x00, 0x00, 0x02, 0x00, 0x00, 0x00, 0x14, 0xf2, 0xff, 0xff,
  0x01, 0x00, 0x00, 0x00, 0x0e, 0x00, 0x00, 0x00, 0x03, 0x00, 0x00, 0x00,
  0x0d, 0x00, 0x00, 0x00, 0x03, 0x00, 0x00, 0x00, 0x02, 0x00, 0x00, 0x00,
  0x00, 0x00, 0x0a, 0x00, 0x10, 0x00, 0x0c, 0x00, 0x08, 0x00, 0x04, 0x00,
  0x0a, 0x00, 0x00, 0x00, 0x0c, 0x00, 0x00, 0x00, 0x10, 0x00, 0x00, 0x00,
  0x01, 0x00, 0x00, 0x00, 0x01, 0x00, 0x00, 0x00, 0x0d, 0x00, 0x00, 0x00,
  0x02, 0x00, 0x00, 0x00, 0x0c, 0x00, 0x00, 0x00, 0x01, 0x00, 0x00, 0x00,
  0x86, 0xff, 0xff, 0xff, 0x10, 0x00, 0x00, 0x00, 0x00, 0x00, 0x00, 0x01,
  0x18, 0x00, 0x00, 0x00, 0x1c, 0x00, 0x00, 0x00, 0x78, 0xff, 0xff, 0xff,
  0x00, 0x00, 0x00, 0x01, 0x02, 0x00, 0x00, 0x00, 0x02, 0x00, 0x00, 0x00,
  0x01, 0x00, 0x00, 0x00, 0x0c, 0x00, 0x00, 0x00, 0x03, 0x00, 0x00, 0x00,
  0x0b, 0x00, 0x00, 0x00, 0x05, 0x00, 0x00, 0x00, 0x04, 0x00, 0x00, 0x00,
  0xc2, 0xff, 0xff, 0xff, 0x10, 0x00, 0x00, 0x00, 0x00, 0x00, 0x00, 0x01,
  0x18, 0x00, 0x00, 0x00, 0x1c, 0x00, 0x00, 0x00, 0xb4, 0xff, 0xff, 0xff,
  0x00, 0x00, 0x00, 0x01, 0x02, 0x00, 0x00, 0x00, 0x02, 0x00, 0x00, 0x00,
  0x01, 0x00, 0x00, 0x00, 0x0b, 0x00, 0x00, 0x00, 0x03, 0x00, 0x00, 0x00,
  0x0a, 0x00, 0x00, 0x00, 0x07, 0x00, 0x00, 0x00, 0x06, 0x00, 0x00, 0x00,
  0x00, 0x00, 0x0e, 0x00, 0x14, 0x00, 0x00, 0x00, 0x10, 0x00, 0x0c, 0x00,
  0x0b, 0x00, 0x04, 0x00, 0x0e, 0x00, 0x00, 0x00, 0x1c, 0x00, 0x00, 0x00,
  0x00, 0x00, 0x00, 0x01, 0x24, 0x00, 0x00, 0x00, 0x28, 0x00, 0x00, 0x00,
  0x0c, 0x00, 0x10, 0x00, 0x00, 0x00, 0x0c, 0x00, 0x08, 0x00, 0x07, 0x00,
  0x0c, 0x00, 0x00, 0x00, 0x00, 0x00, 0x00, 0x01, 0x02, 0x00, 0x00, 0x00,
  0x02, 0x00, 0x00, 0x00, 0x01, 0x00, 0x00, 0x00, 0x0a, 0x00, 0x00, 0x00,
  0x03, 0x00, 0x00, 0x00, 0x00, 0x00, 0x00, 0x00, 0x09, 0x00, 0x00, 0x00,
  0x08, 0x00, 0x00, 0x00, 0x01, 0x00, 0x00, 0x00, 0x0f, 0x00, 0x00, 0x00,
  0x01, 0x00, 0x00, 0x00, 0x00, 0x00, 0x00, 0x00, 0x10, 0x00, 0x00, 0x00,
  0xfc, 0x0c, 0x00, 0x00, 0x9c, 0x0c, 0x00, 0x00, 0x20, 0x0c, 0x00, 0x00,
  0xbc, 0x0b, 0x00, 0x00, 0xc8, 0x09, 0x00, 0x00, 0xe4, 0x07, 0x00, 0x00,
  0xb0, 0x06, 0x00, 0x00, 0x8c, 0x05, 0x00, 0x00, 0xb8, 0x04, 0x00, 0x00,
  0xa4, 0x03, 0x00, 0x00, 0xe0, 0x02, 0x00, 0x00, 0x14, 0x02, 0x00, 0x00,
  0x48, 0x01, 0x00, 0x00, 0xdc, 0x00, 0x00, 0x00, 0x60, 0x00, 0x00, 0x00,
  0x04, 0x00, 0x00, 0x00, 0x5a, 0xf3, 0xff, 0xff, 0x00, 0x00, 0x00, 0x01,
  0x14, 0x00, 0x00, 0x00, 0x30, 0x00, 0x00, 0x00, 0x10, 0x00, 0x00, 0x00,
  0x00, 0x00, 0x00, 0x09, 0x34, 0x00, 0x00, 0x00, 0x44, 0xf3, 0xff, 0xff,
  0x08, 0x00, 0x00, 0x00, 0x10, 0x00, 0x00, 0x00, 0x01, 0x00, 0x00, 0x00,
  0x80, 0xff, 0xff, 0xff, 0xff, 0xff, 0xff, 0xff, 0x01, 0x00, 0x00, 0x00,
  0x00, 0x00, 0x80, 0x3b, 0x08, 0x00, 0x00, 0x00, 0x49, 0x64, 0x65, 0x6e,
  0x74, 0x69, 0x74, 0x79, 0x00, 0x00, 0x00, 0x00, 0x02, 0x00, 0x00, 0x00,
  0x01, 0x00, 0x00, 0x00, 0x0a, 0x00, 0x00, 0x00, 0xb2, 0xf3, 0xff, 0xff,
  0x00, 0x00, 0x00, 0x01, 0x14, 0x00, 0x00, 0x00, 0x34, 0x00, 0x00, 0x00,
  0x0f, 0x00, 0x00, 0x00, 0x00, 0x00, 0x00, 0x09, 0x54, 0x00, 0x00, 0x00,
  0x9c, 0xf3, 0xff, 0xff, 0x08, 0x00, 0x00, 0x00, 0x14, 0x00, 0x00, 0x00,
  0x01, 0x00, 0x00, 0x00, 0x36, 0x00, 0x00, 0x00, 0x00, 0x00, 0x00, 0x00,
  0x00, 0x00, 0x00, 0x00, 0x01, 0x00, 0x00, 0x00, 0x7d, 0x59, 0x2e, 0x3f,
  0x26, 0x00, 0x00, 0x00, 0x6d, 0x6f, 0x64, 0x65, 0x6c, 0x2f, 0x64, 0x65,
  0x6e, 0x73, 0x65, 0x2f, 0x4d, 0x61, 0x74, 0x4d, 0x75, 0x6c, 0x3b, 0x6d,
  0x6f, 0x64, 0x65, 0x6c, 0x2f, 0x64, 0x65, 0x6e, 0x73, 0x65, 0x2f, 0x42,
  0x69, 0x61, 0x73, 0x41, 0x64, 0x64, 0x00, 0x00, 0x02, 0x00, 0x00, 0x00,
  0x01, 0x00, 0x00, 0x00, 0x0a, 0x00, 0x00, 0x00, 0x2a, 0xf4, 0xff, 0xff,
  0x00, 0x00, 0x00, 0x01, 0x14, 0x00, 0x00, 0x00, 0x34, 0x00, 0x00, 0x00,
  0x0e, 0x00, 0x00, 0x00, 0x00, 0x00, 0x00, 0x09, 0x44, 0x00, 0x00, 0x00,
  0x14, 0xf4, 0xff, 0xff, 0x08, 0x00, 0x00, 0x00, 0x14, 0x00, 0x00, 0x00,
  0x01, 0x00, 0x00, 0x00, 0x80, 0xff, 0xff, 0xff, 0xff, 0xff, 0xff, 0xff,
  0x00, 0x00, 0x00, 0x00, 0x01, 0x00, 0x00, 0x00, 0xcb, 0x09, 0x37, 0x3e,
  0x15, 0x00, 0x00, 0x00, 0x6d, 0x6f, 0x64, 0x65, 0x6c, 0x2f, 0x66, 0x6c,
  0x61, 0x74, 0x74, 0x65, 0x6e, 0x2f, 0x52, 0x65, 0x73, 0x68, 0x61, 0x70,
  0x65, 0x00, 0x00, 0x00, 0x02, 0x00, 0x00, 0x00, 0x01, 0x00, 0x00, 0x00,
  0x00, 0x02, 0x00, 0x00, 0x92, 0xf4, 0xff, 0xff, 0x00, 0x00, 0x00, 0x01,
  0x14, 0x00, 0x00, 0x00, 0x34, 0x00, 0x00, 0x00, 0x0d, 0x00, 0x00, 0x00,
  0x00, 0x00, 0x00, 0x09, 0x9c, 0x00, 0x00, 0x00, 0x7c, 0xf4, 0xff, 0xff,
  0x08, 0x00, 0x00, 0x00, 0x14, 0x00, 0x00, 0x00, 0x01, 0x00, 0x00, 0x00,
  0x80, 0xff, 0xff, 0xff, 0xff, 0xff, 0xff, 0xff, 0x00, 0x00, 0x00, 0x00,
  0x01, 0x00, 0x00, 0x00, 0xcb, 0x09, 0x37, 0x3e, 0x6f, 0x00, 0x00, 0x00,
  0x6d, 0x6f, 0x64, 0x65, 0x6c, 0x2f, 0x63, 0x6f, 0x6e, 0x76, 0x32, 0x64,
  0x5f, 0x32, 0x2f, 0x52, 0x65, 0x6c, 0x75, 0x3b, 0x6d, 0x6f, 0x64, 0x65,
  0x6c, 0x2f, 0x63, 0x6f, 0x6e, 0x76, 0x32, 0x64, 0x5f, 0x32, 0x2f, 0x42,
  0x69, 0x61, 0x73, 0x41, 0x64, 0x64, 0x3b, 0x6d, 0x6f, 0x64, 0x65, 0x6c,
  0x2f, 0x63, 0x6f, 0x6e, 0x76, 0x32, 0x64, 0x5f, 0x32, 0x2f, 0x43, 0x6f,
  0x6e, 0x76, 0x32, 0x44, 0x3b, 0x6d, 0x6f, 0x64, 0x65, 0x6c, 0x2f, 0x63,
  0x6f, 0x6e, 0x76, 0x32, 0x64, 0x5f, 0x32, 0x2f, 0x42, 0x69, 0x61, 0x73,
  0x41, 0x64, 0x64, 0x2f, 0x52, 0x65, 0x61, 0x64, 0x56, 0x61, 0x72, 0x69,
  0x61, 0x62, 0x6c, 0x65, 0x4f, 0x70, 0x2f, 0x72, 0x65, 0x73, 0x6f, 0x75,
  0x72, 0x63, 0x65, 0x00, 0x04, 0x00, 0x00, 0x00, 0x01, 0x00, 0x00, 0x00,
  0x04, 0x00, 0x00, 0x00, 0x04, 0x00, 0x00, 0x00, 0x20, 0x00, 0x00, 0x00,
  0x5a, 0xf5, 0xff, 0xff, 0x00, 0x00, 0x00, 0x01, 0x14, 0x00, 0x00, 0x00,
  0x34, 0x00, 0x00, 0x00, 0x0c, 0x00, 0x00, 0x00, 0x00, 0x00, 0x00, 0x09,
  0x9c, 0x00, 0x00, 0x00, 0x44, 0xf5, 0xff, 0xff, 0x08, 0x00, 0x00, 0x00,
  0x14, 0x00, 0x00, 0x00, 0x01, 0x00, 0x00, 0x00, 0x80, 0xff, 0xff, 0xff,
  0xff, 0xff, 0xff, 0xff, 0x00, 0x00, 0x00, 0x00, 0x01, 0x00, 0x00, 0x00,
  0x32, 0xf2, 0x6d, 0x3d, 0x6f, 0x00, 0x00, 0x00, 0x6d, 0x6f, 0x64, 0x65,
  0x6c, 0x2f, 0x63, 0x6f, 0x6e, 0x76, 0x32, 0x64, 0x5f, 0x31, 0x2f, 0x52,
  0x65, 0x6c, 0x75, 0x3b, 0x6d, 0x6f, 0x64, 0x65, 0x6c, 0x2f, 0x63, 0x6f,
  0x6e, 0x76, 0x32, 0x64, 0x5f, 0x31, 0x2f, 0x42, 0x69, 0x61, 0x73, 0x41,
  0x64, 0x64, 0x3b, 0x6d, 0x6f, 0x64, 0x65, 0x6c, 0x2f, 0x63, 0x6f, 0x6e,
  0x76, 0x32, 0x64, 0x5f, 0x31, 0x2f, 0x43, 0x6f, 0x6e, 0x76, 0x32, 0x44,
  0x3b, 0x6d, 0x6f, 0x64, 0x65, 0x6c, 0x2f, 0x63, 0x6f, 0x6e, 0x76, 0x32,
  0x64, 0x5f, 0x31, 0x2f, 0x42, 0x69, 0x61, 0x73, 0x41, 0x64, 0x64, 0x2f,
  0x52, 0x65, 0x61, 0x64, 0x56, 0x61, 0x72, 0x69, 0x61, 0x62, 0x6c, 0x65,
  0x4f, 0x70, 0x2f, 0x72, 0x65, 0x73, 0x6f, 0x75, 0x72, 0x63, 0x65, 0x00,
  0x04, 0x00, 0x00, 0x00, 0x01, 0x00, 0x00, 0x00, 0x08, 0x00, 0x00, 0x00,
  0x08, 0x00, 0x00, 0x00, 0x10, 0x00, 0x00, 0x00, 0x22, 0xf6, 0xff, 0xff,
  0x00, 0x00, 0x00, 0x01, 0x14, 0x00, 0x00, 0x00, 0x30, 0x00, 0x00, 0x00,
  0x0b, 0x00, 0x00, 0x00, 0x00, 0x00, 0x00, 0x09, 0x94, 0x00, 0x00, 0x00,
  0x0c, 0xf6, 0xff, 0xff, 0x08, 0x00, 0x00, 0x00, 0x10, 0x00, 0x00, 0x00,
  0x01, 0x00, 0x00, 0x00, 0x80, 0xff, 0xff, 0xff, 0xff, 0xff, 0xff, 0xff,
  0x01, 0x00, 0x00, 0x00, 0xc1, 0xd7, 0x5e, 0x3c, 0x68, 0x00, 0x00, 0x00,
  0x6d, 0x6f, 0x64, 0x65, 0x6c, 0x2f, 0x63, 0x6f, 0x6e, 0x76, 0x32, 0x64,
  0x2f, 0x52, 0x65, 0x6c, 0x75, 0x3b, 0x6d, 0x6f, 0x64, 0x65, 0x6c, 0x2f,
  0x63, 0x6f, 0x6e, 0x76, 0x32, 0x64, 0x2f, 0x42, 0x69, 0x61, 0x73, 0x41,
  0x64, 0x64, 0x3b, 0x6d, 0x6f, 0x64, 0x65, 0x6c, 0x2f, 0x63, 0x6f, 0x6e,
  0x76, 0x32, 0x64, 0x2f, 0x43, 0x6f, 0x6e, 0x76, 0x32, 0x44, 0x3b, 0x6d,
  0x6f, 0x64, 0x65, 0x6c, 0x2f, 0x63, 0x6f, 0x6e, 0x76, 0x32, 0x64, 0x2f,
  0x42, 0x69, 0x61, 0x73, 0x41, 0x64, 0x64, 0x2f, 0x52, 0x65, 0x61, 0x64,
  0x56, 0x61, 0x72, 0x69, 0x61, 0x62, 0x6c, 0x65, 0x4f, 0x70, 0x2f, 0x72,
  0x65, 0x73, 0x6f, 0x75, 0x72, 0x63, 0x65, 0x31, 0x00, 0x00, 0x00, 0x00,
  0x04, 0x00, 0x00, 0x00, 0x01, 0x00, 0x00, 0x00, 0x10, 0x00, 0x00, 0x00,
  0x10, 0x00, 0x00, 0x00, 0x08, 0x00, 0x00, 0x00, 0xe2, 0xf6, 0xff, 0xff,
  0x00, 0x00, 0x00, 0x01, 0x14, 0x00, 0x00, 0x00, 0x84, 0x00, 0x00, 0x00,
  0x0a, 0x00, 0x00, 0x00, 0x00, 0x00, 0x00, 0x09, 0xe4, 0x00, 0x00, 0x00,
  0xcc, 0xf6, 0xff, 0xff, 0x08, 0x00, 0x00, 0x00, 0x48, 0x00, 0x00, 0x00,
  0x08, 0x00, 0x00, 0x00, 0x00, 0x00, 0x00, 0x00, 0x00, 0x00, 0x00, 0x00,
  0x00, 0x00, 0x00, 0x00, 0x00, 0x00, 0x00, 0x00, 0x00, 0x00, 0x00, 0x00,
  0x00, 0x00, 0x00, 0x00, 0x00, 0x00, 0x00, 0x00, 0x00, 0x00, 0x00, 0x00,
  0x00, 0x00, 0x00, 0x00, 0x00, 0x00, 0x00, 0x00, 0x00, 0x00, 0x00, 0x00,
  0x00, 0x00, 0x00, 0x00, 0x00, 0x00, 0x00, 0x00, 0x00, 0x00, 0x00, 0x00,
  0x00, 0x00, 0x00, 0x00, 0x00, 0x00, 0x00, 0x00, 0x08, 0x00, 0x00, 0x00,
  0x11, 0x1b, 0xaa, 0x37, 0xee, 0x93, 0xb5, 0x37, 0x54, 0xa1, 0xc5, 0x37,
  0x0e, 0xdb, 0xed, 0x37, 0x39, 0xf8, 0xde, 0x37, 0xd1, 0x33, 0xcc, 0x37,
  0x5e, 0xb1, 0xb0, 0x37, 0x9c, 0x3d, 0xc1, 0x37, 0x67, 0x00, 0x00, 0x00,
  0x6d, 0x6f, 0x64, 0x65, 0x6c, 0x2f, 0x63, 0x6f, 0x6e, 0x76, 0x32, 0x64,
  0x2f, 0x52, 0x65, 0x6c, 0x75, 0x3b, 0x6d, 0x6f, 0x64, 0x65, 0x6c, 0x2f,
  0x63, 0x6f, 0x6e, 0x76, 0x32, 0x64, 0x2f, 0x42, 0x69, 0x61, 0x73, 0x41,
  0x64, 0x64, 0x3b, 0x6d, 0x6f, 0x64, 0x65, 0x6c, 0x2f, 0x63, 0x6f, 0x6e,
  0x76, 0x32, 0x64, 0x2f, 0x43, 0x6f, 0x6e, 0x76, 0x32, 0x44, 0x3b, 0x6d,
  0x6f, 0x64, 0x65, 0x6c, 0x2f, 0x63, 0x6f, 0x6e, 0x76, 0x32, 0x64, 0x2f,
  0x42, 0x69, 0x61, 0x73, 0x41, 0x64, 0x64, 0x2f, 0x52, 0x65, 0x61, 0x64,
  0x56, 0x61, 0x72, 0x69, 0x61, 0x62, 0x6c, 0x65, 0x4f, 0x70, 0x2f, 0x72,
  0x65, 0x73, 0x6f, 0x75, 0x72, 0x63, 0x65, 0x00, 0x04, 0x00, 0x00, 0x00,
  0x08, 0x00, 0x00, 0x00, 0x03, 0x00, 0x00, 0x00, 0x03, 0x00, 0x00, 0x00,
  0x03, 0x00, 0x00, 0x00, 0xf2, 0xf7, 0xff, 0xff, 0x00, 0x00, 0x00, 0x01,
  0x14, 0x00, 0x00, 0x00, 0x88, 0x00, 0x00, 0x00, 0x09, 0x00, 0x00, 0x00,
  0x00, 0x00, 0x00, 0x02, 0xb0, 0x00, 0x00, 0x00, 0xdc, 0xf7, 0xff, 0xff,
  0x08, 0x00, 0x00, 0x00, 0x4c, 0x00, 0x00, 0x00, 0x08, 0x00, 0x00, 0x00,
  0x00, 0x00, 0x00, 0x00, 0x00, 0x00, 0x00, 0x00, 0x00, 0x00, 0x00, 0x00,
  0x00, 0x00, 0x00, 0x00, 0x00, 0x00, 0x00, 0x00, 0x00, 0x00, 0x00, 0x00,
  0x00, 0x00, 0x00, 0x00, 0x00, 0x00, 0x00, 0x00, 0x00, 0x00, 0x00, 0x00,
  0x00, 0x00, 0x00, 0x00, 0x00, 0x00, 0x00, 0x00, 0x00, 0x00, 0x00, 0x00,
  0x00, 0x00, 0x00, 0x00, 0x00, 0x00, 0x00, 0x00, 0x00, 0x00, 0x00, 0x00,
  0x00, 0x00, 0x00, 0x00, 0x00, 0x00, 0x00, 0x00, 0x08, 0x00, 0x00, 0x00,
  0x11, 0x1b, 0xaa, 0x37, 0xee, 0x93, 0xb5, 0x37, 0x54, 0xa1, 0xc5, 0x37,
  0x0e, 0xdb, 0xed, 0x37, 0x39, 0xf8, 0xde, 0x37, 0xd1, 0x33, 0xcc, 0x37,
  0x5e, 0xb1, 0xb0, 0x37, 0x9c, 0x3d, 0xc1, 0x37, 0x2c, 0x00, 0x00, 0x00,
  0x6d, 0x6f, 0x64, 0x65, 0x6c, 0x2f, 0x63, 0x6f, 0x6e, 0x76, 0x32, 0x64,
  0x2f, 0x42, 0x69, 0x61, 0x73, 0x41, 0x64, 0x64, 0x2f, 0x52, 0x65, 0x61,
  0x64, 0x56, 0x61, 0x72, 0x69, 0x61, 0x62, 0x6c, 0x65, 0x4f, 0x70, 0x2f,
  0x72, 0x65, 0x73, 0x6f, 0x75, 0x72, 0x63, 0x65, 0x00, 0x00, 0x00, 0x00,
  0x01, 0x00, 0x00, 0x00, 0x08, 0x00, 0x00, 0x00, 0xc2, 0xf8, 0xff, 0xff,
  0x00, 0x00, 0x00, 0x01, 0x14, 0x00, 0x00, 0x00, 0xe4, 0x00, 0x00, 0x00,
  0x08, 0x00, 0x00, 0x00, 0x00, 0x00, 0x00, 0x09, 0xf4, 0x00, 0x00, 0x00,
  0xac, 0xf8, 0xff, 0xff, 0x08, 0x00, 0x00, 0x00, 0x88, 0x00, 0x00, 0x00,
  0x10, 0x00, 0x00, 0x00, 0x00, 0x00, 0x00, 0x00, 0x00, 0x00, 0x00, 0x00,
  0x00, 0x00, 0x00, 0x00, 0x00, 0x00, 0x00, 0x00, 0x00, 0x00, 0x00, 0x00,
  0x00, 0x00, 0x00, 0x00, 0x00, 0x00, 0x00, 0x00, 0x00, 0x00, 0x00, 0x00,
  0x00, 0x00, 0x00, 0x00, 0x00, 0x00, 0x00, 0x00, 0x00, 0x00, 0x00, 0x00,
  0x00, 0x00, 0x00, 0x00, 0x00, 0x00, 0x00, 0x00, 0x00, 0x00, 0x00, 0x00,
  0x00, 0x00, 0x00, 0x00, 0x00, 0x00, 0x00, 0x00, 0x00, 0x00, 0x00, 0x00,
  0x00, 0x00, 0x00, 0x00, 0x00, 0x00, 0x00, 0x00, 0x00, 0x00, 0x00, 0x00,
  0x00, 0x00, 0x00, 0x00, 0x00, 0x00, 0x00, 0x00, 0x00, 0x00, 0x00, 0x00,
  0x00, 0x00, 0x00, 0x00, 0x00, 0x00, 0x00, 0x00, 0x00, 0x00, 0x00, 0x00,
  0x00, 0x00, 0x00, 0x00, 0x00, 0x00, 0x00, 0x00, 0x00, 0x00, 0x00, 0x00,
  0x00, 0x00, 0x00, 0x00, 0x00, 0x00, 0x00, 0x00, 0x00, 0x00, 0x00, 0x00,
  0x10, 0x00, 0x00, 0x00, 0xc4, 0xeb, 0xc1, 0x3b, 0x26, 0xf8, 0x7a, 0x3b,
  0xfb, 0x47, 0xa0, 0x3b, 0xdc, 0x56, 0xab, 0x3b, 0x70, 0x20, 0xdb, 0x3b,
  0xa1, 0xf4, 0x7c, 0x3b, 0x0c, 0x76, 0x8f, 0x3b, 0x14, 0x15, 0xba, 0x3b,
  0x7b, 0xae, 0x9f, 0x3b, 0x4b, 0x9c, 0xdf, 0x3b, 0x9a, 0xbc, 0xba, 0x3b,
  0xd9, 0xc7, 0xac, 0x3b, 0xb8, 0xa6, 0xa1, 0x3b, 0x4c, 0xba, 0x92, 0x3b,
  0x67, 0xd2, 0xba, 0x3b, 0xf5, 0x86, 0xb6, 0x3b, 0x15, 0x00, 0x00, 0x00,
  0x6d, 0x6f, 0x64, 0x65, 0x6c, 0x2f, 0x63, 0x6f, 0x6e, 0x76, 0x32, 0x64,
  0x5f, 0x31, 0x2f, 0x43, 0x6f, 0x6e, 0x76, 0x32, 0x44, 0x00, 0x00, 0x00,
  0x04, 0x00, 0x00, 0x00, 0x10, 0x00, 0x00, 0x00, 0x03, 0x00, 0x00, 0x00,
  0x03, 0x00, 0x00, 0x00, 0x08, 0x00, 0x00, 0x00, 0xe2, 0xf9, 0xff, 0xff,
  0x00, 0x00, 0x00, 0x01, 0x14, 0x00, 0x00, 0x00, 0xe8, 0x00, 0x00, 0x00,
  0x07, 0x00, 0x00, 0x00, 0x00, 0x00, 0x00, 0x02, 0x10, 0x01, 0x00, 0x00,
  0xcc, 0xf9, 0xff, 0xff, 0x08, 0x00, 0x00, 0x00, 0x8c, 0x00, 0x00, 0x00,
  0x10, 0x00, 0x00, 0x00, 0x00, 0x00, 0x00, 0x00, 0x00, 0x00, 0x00, 0x00,
  0x00, 0x00, 0x00, 0x00, 0x00, 0x00, 0x00, 0x00, 0x00, 0x00, 0x00, 0x00,
  0x00, 0x00, 0x00, 0x00, 0x00, 0x00, 0x00, 0x00, 0x00, 0x00, 0x00, 0x00,
  0x00, 0x00, 0x00, 0x00, 0x00, 0x00, 0x00, 0x00, 0x00, 0x00, 0x00, 0x00,
  0x00, 0x00, 0x00, 0x00, 0x00, 0x00, 0x00, 0x00, 0x00, 0x00, 0x00, 0x00,
  0x00, 0x00, 0x00, 0x00, 0x00, 0x00, 0x00, 0x00, 0x00, 0x00, 0x00, 0x00,
  0x00, 0x00, 0x00, 0x00, 0x00, 0x00, 0x00, 0x00, 0x00, 0x00, 0x00, 0x00,
  0x00, 0x00, 0x00, 0x00, 0x00, 0x00, 0x00, 0x00, 0x00, 0x00, 0x00, 0x00,
  0x00, 0x00, 0x00, 0x00, 0x00, 0x00, 0x00, 0x00, 0x00, 0x00, 0x00, 0x00,
  0x00, 0x00, 0x00, 0x00, 0x00, 0x00, 0x00, 0x00, 0x00, 0x00, 0x00, 0x00,
  0x00, 0x00, 0x00, 0x00, 0x00, 0x00, 0x00, 0x00, 0x00, 0x00, 0x00, 0x00,
  0x00, 0x00, 0x00, 0x00, 0x10, 0x00, 0x00, 0x00, 0xe3, 0xcd, 0xa8, 0x38,
  0xb5, 0x76, 0x5a, 0x38, 0x81, 0x85, 0x8b, 0x38, 0xba, 0x25, 0x95, 0x38,
  0xcf, 0xbe, 0xbe, 0x38, 0x54, 0x31, 0x5c, 0x38, 0x8d, 0xc2, 0x79, 0x38,
  0x1b, 0xfb, 0xa1, 0x38, 0xe3, 0xff, 0x8a, 0x38, 0xfe, 0xa5, 0xc2, 0x38,
  0xef, 0x8c, 0xa2, 0x38, 0xec, 0x66, 0x96, 0x38, 0xd0, 0xb6, 0x8c, 0x38,
  0x6e, 0x72, 0x7f, 0x38, 0xe9, 0x9f, 0xa2, 0x38, 0xdd, 0xe2, 0x9e, 0x38,
  0x2e, 0x00, 0x00, 0x00, 0x6d, 0x6f, 0x64, 0x65, 0x6c, 0x2f, 0x63, 0x6f,
  0x6e, 0x76, 0x32, 0x64, 0x5f, 0x31, 0x2f, 0x42, 0x69, 0x61, 0x73, 0x41,
  0x64, 0x64, 0x2f, 0x52, 0x65, 0x61, 0x64, 0x56, 0x61, 0x72, 0x69, 0x61,
  0x62, 0x6c, 0x65, 0x4f, 0x70, 0x2f, 0x72, 0x65, 0x73, 0x6f, 0x75, 0x72,
  0x63, 0x65, 0x00, 0x00, 0x01, 0x00, 0x00, 0x00, 0x10, 0x00, 0x00, 0x00,
  0x12, 0xfb, 0xff, 0xff, 0x00, 0x00, 0x00, 0x01, 0x14, 0x00, 0x00, 0x00,
  0xa4, 0x01, 0x00, 0x00, 0x06, 0x00, 0x00, 0x00, 0x00, 0x00, 0x00, 0x09,
  0xb4, 0x01, 0x00, 0x00, 0xfc, 0xfa, 0xff, 0xff, 0x08, 0x00, 0x00, 0x00,
  0x08, 0x01, 0x00, 0x00, 0x20, 0x00, 0x00, 0x00, 0x00, 0x00, 0x00, 0x00,
  0x00, 0x00, 0x00, 0x00, 0x00, 0x00, 0x00, 0x00, 0x00, 0x00, 0x00, 0x00,
  0x00, 0x00, 0x00, 0x00, 0x00, 0x00, 0x00, 0x00, 0x00, 0x00, 0x00, 0x00,
  0x00, 0x00, 0x00, 0x00, 0x00, 0x00, 0x00, 0x00, 0x00, 0x00, 0x00, 0x00,
  0x00, 0x00, 0x00, 0x00, 0x00, 0x00, 0x00, 0x00, 0x00, 0x00, 0x00, 0x00,
  0x00, 0x00, 0x00, 0x00, 0x00, 0x00, 0x00, 0x00, 0x00, 0x00, 0x00, 0x00,
  0x00, 0x00, 0x00, 0x00, 0x00, 0x00, 0x00, 0x00, 0x00, 0x00, 0x00, 0x00,
  0x00, 0x00, 0x00, 0x00, 0x00, 0x00, 0x00, 0x00, 0x00, 0x00, 0x00, 0x00,
  0x00, 0x00, 0x00, 0x00, 0x00, 0x00, 0x00, 0x00, 0x00, 0x00, 0x00, 0x00,
  0x00, 0x00, 0x00, 0x00, 0x00, 0x00, 0x00, 0x00, 0x00, 0x00, 0x00, 0x00,
  0x00, 0x00, 0x00, 0x00, 0x00, 0x00, 0x00, 0x00, 0x00, 0x00, 0x00, 0x00,
  0x00, 0x00, 0x00, 0x00, 0x00, 0x00, 0x00, 0x00, 0x00, 0x00, 0x00, 0x00,
  0x00, 0x00, 0x00, 0x00, 0x00, 0x00, 0x00, 0x00, 0x00, 0x00, 0x00, 0x00,
  0x00, 0x00, 0x00, 0x00, 0x00, 0x00, 0x00, 0x00, 0x00, 0x00, 0x00, 0x00,
  0x00, 0x00, 0x00, 0x00, 0x00, 0x00, 0x00, 0x00, 0x00, 0x00, 0x00, 0x00,
  0x00, 0x00, 0x00, 0x00, 0x00, 0x00, 0x00, 0x00, 0x00, 0x00, 0x00, 0x00,
  0x00, 0x00, 0x00, 0x00, 0x00, 0x00, 0x00, 0x00, 0x00, 0x00, 0x00, 0x00,
  0x00, 0x00, 0x00, 0x00, 0x00, 0x00, 0x00, 0x00, 0x00, 0x00, 0x00, 0x00,
  0x00, 0x00, 0x00, 0x00, 0x00, 0x00, 0x00, 0x00, 0x00, 0x00, 0x00, 0x00,
  0x00, 0x00, 0x00, 0x00, 0x00, 0x00, 0x00, 0x00, 0x00, 0x00, 0x00, 0x00,
  0x00, 0x00, 0x00, 0x00, 0x00, 0x00, 0x00, 0x00, 0x00, 0x00, 0x00, 0x00,
  0x00, 0x00, 0x00, 0x00, 0x00, 0x00, 0x00, 0x00, 0x00, 0x00, 0x00, 0x00,
  0x20, 0x00, 0x00, 0x00, 0x51, 0x83, 0x9d, 0x3b, 0x6a, 0x00, 0x8b, 0x3b,
  0xf2, 0x51, 0x8f, 0x3b, 0x56, 0xb1, 0xdf, 0x3b, 0x86, 0xf1, 0x7b, 0x3b,
  0xe1, 0x5d, 0x77, 0x3b, 0xb4, 0x30, 0x26, 0x3b, 0x69, 0x62, 0x25, 0x3b,
  0xf2, 0x24, 0xa3, 0x3b, 0xbd, 0x19, 0x23, 0x3b, 0x5e, 0x17, 0x50, 0x3b,
  0x67, 0x8f, 0x9c, 0x3b, 0xa6, 0xab, 0x92, 0x3b, 0xaf, 0x56, 0x85, 0x3b,
  0x1e, 0xe3, 0x65, 0x3b, 0x42, 0x77, 0x1f, 0x3b, 0xbe, 0x34, 0x60, 0x3b,
  0xf2, 0x3e, 0x91, 0x3b, 0x66, 0x23, 0x3d, 0x3b, 0x5e, 0xc0, 0x9c, 0x3b,
  0x6d, 0xac, 0x80, 0x3b, 0xd0, 0xe1, 0x92, 0x3b, 0x7d, 0x89, 0x36, 0x3b,
  0x98, 0xe7, 0x5b, 0x3b, 0xfd, 0x36, 0x5d, 0x3b, 0xe9, 0xf8, 0x72, 0x3b,
  0x3e, 0xf4, 0x82, 0x3b, 0x8a, 0xff, 0xd0, 0x3b, 0xd4, 0xfd, 0xd1, 0x3b,
  0x2c, 0x49, 0x95, 0x3b, 0xa8, 0x89, 0x25, 0x3b, 0x0a, 0x6f, 0x45, 0x3b,
  0x15, 0x00, 0x00, 0x00, 0x6d, 0x6f, 0x64, 0x65, 0x6c, 0x2f, 0x63, 0x6f,
  0x6e, 0x76, 0x32, 0x64, 0x5f, 0x32, 0x2f, 0x43, 0x6f, 0x6e, 0x76, 0x32,
  0x44, 0x00, 0x00, 0x00, 0x04, 0x00, 0x00, 0x00, 0x20, 0x00, 0x00, 0x00,
  0x03, 0x00, 0x00, 0x00, 0x03, 0x00, 0x00, 0x00, 0x10, 0x00, 0x00, 0x00,
  0xf2, 0xfc, 0xff, 0xff, 0x00, 0x00, 0x00, 0x01, 0x14, 0x00, 0x00, 0x00,
  0xa8, 0x01, 0x00, 0x00, 0x05, 0x00, 0x00, 0x00, 0x00, 0x00, 0x00, 0x02,
  0xd0, 0x01, 0x00, 0x00, 0xdc, 0xfc, 0xff, 0xff, 0x08, 0x00, 0x00, 0x00,
  0x0c, 0x01, 0x00, 0x00, 0x20, 0x00, 0x00, 0x00, 0x00, 0x00, 0x00, 0x00,
  0x00, 0x00, 0x00, 0x00, 0x00, 0x00, 0x00, 0x00, 0x00, 0x00, 0x00, 0x00,
  0x00, 0x00, 0x00, 0x00, 0x00, 0x00, 0x00, 0x00, 0x00, 0x00, 0x00, 0x00,
  0x00, 0x00, 0x00, 0x00, 0x00, 0x00, 0x00, 0x00, 0x00, 0x00, 0x00, 0x00,
  0x00, 0x00, 0x00, 0x00, 0x00, 0x00, 0x00, 0x00, 0x00, 0x00, 0x00, 0x00,
  0x00, 0x00, 0x00, 0x00, 0x00, 0x00, 0x00, 0x00, 0x00, 0x00, 0x00, 0x00,
  0x00, 0x00, 0x00, 0x00, 0x00, 0x00, 0x00, 0x00, 0x00, 0x00, 0x00, 0x00,
  0x00, 0x00, 0x00, 0x00, 0x00, 0x00, 0x00, 0x00, 0x00, 0x00, 0x00, 0x00,
  0x00, 0x00, 0x00, 0x00, 0x00, 0x00, 0x00, 0x00, 0x00, 0x00, 0x00, 0x00,
  0x00, 0x00, 0x00, 0x00, 0x00, 0x00, 0x00, 0x00, 0x00, 0x00, 0x00, 0x00,
  0x00, 0x00, 0x00, 0x00, 0x00, 0x00, 0x00, 0x00, 0x00, 0x00, 0x00, 0x00,
  0x00, 0x00, 0x00, 0x00, 0x00, 0x00, 0x00, 0x00, 0x00, 0x00, 0x00, 0x00,
  0x00, 0x00, 0x00, 0x00, 0x00, 0x00, 0x00, 0x00, 0x00, 0x00, 0x00, 0x00,
  0x00, 0x00, 0x00, 0x00, 0x00, 0x00, 0x00, 0x00, 0x00, 0x00, 0x00, 0x00,
  0x00, 0x00, 0x00, 0x00, 0x00, 0x00, 0x00, 0x00, 0x00, 0x00, 0x00, 0x00,
  0x00, 0x00, 0x00, 0x00, 0x00, 0x00, 0x00, 0x00, 0x00, 0x00, 0x00, 0x00,
  0x00, 0x00, 0x00, 0x00, 0x00, 0x00, 0x00, 0x00, 0x00, 0x00, 0x00, 0x00,
  0x00, 0x00, 0x00, 0x00, 0x00, 0x00, 0x00, 0x00, 0x00, 0x00, 0x00, 0x00,
  0x00, 0x00, 0x00, 0x00, 0x00, 0x00, 0x00, 0x00, 0x00, 0x00, 0x00, 0x00,
  0x00, 0x00, 0x00, 0x00, 0x00, 0x00, 0x00, 0x00, 0x00, 0x00, 0x00, 0x00,
  0x00, 0x00, 0x00, 0x00, 0x00, 0x00, 0x00, 0x00, 0x00, 0x00, 0x00, 0x00,
  0x00, 0x00, 0x00, 0x00, 0x00, 0x00, 0x00, 0x00, 0x00, 0x00, 0x00, 0x00,
  0x00, 0x00, 0x00, 0x00, 0x20, 0x00, 0x00, 0x00, 0x97, 0x67, 0x92, 0x39,
  0xe4, 0x32, 0x81, 0x39, 0x74, 0x36, 0x85, 0x39, 0xce, 0xea, 0xcf, 0x39,
  0xf5, 0x2c, 0x6a, 0x39, 0xf0, 0xeb, 0x65, 0x39, 0x51, 0x78, 0x1a, 0x39,
  0x93, 0xb8, 0x19, 0x39, 0x8d, 0xa3, 0x97, 0x39, 0x22, 0x99, 0x17, 0x39,
  0x81, 0x6a, 0x41, 0x39, 0xe0, 0x84, 0x91, 0x39, 0xac, 0x53, 0x88, 0x39,
  0xcc, 0xde, 0x77, 0x39, 0xc0, 0xac, 0x55, 0x39, 0x46, 0x38, 0x14, 0x39,
  0xf2, 0x64, 0x50, 0x39, 0xb0, 0x00, 0x87, 0x39, 0xb6, 0xcc, 0x2f, 0x39,
  0x63, 0xb2, 0x91, 0x39, 0xba, 0x32, 0x6f, 0x39, 0x04, 0x86, 0x88, 0x39,
  0xfa, 0xa9, 0x29, 0x39, 0x74, 0x65, 0x4c, 0x39, 0x31, 0x9d, 0x4d, 0x39,
  0x4e, 0xd6, 0x61, 0x39, 0x04, 0x70, 0x73, 0x39, 0x4d, 0x42, 0xc2, 0x39,
  0xa8, 0x2e, 0xc3, 0x39, 0xfa, 0xc1, 0x8a, 0x39, 0x0d, 0xdd, 0x19, 0x39,
  0x96, 0x82, 0x37, 0x39, 0x2e, 0x00, 0x00, 0x00, 0x6d, 0x6f, 0x64, 0x65,
  0x6c, 0x2f, 0x63, 0x6f, 0x6e, 0x76, 0x32, 0x64, 0x5f, 0x32, 0x2f, 0x42,
  0x69, 0x61, 0x73, 0x41, 0x64, 0x64, 0x2f, 0x52, 0x65, 0x61, 0x64, 0x56,
  0x61, 0x72, 0x69, 0x61, 0x62, 0x6c, 0x65, 0x4f, 0x70, 0x2f, 0x72, 0x65,
  0x73, 0x6f, 0x75, 0x72, 0x63, 0x65, 0x00, 0x00, 0x01, 0x00, 0x00, 0x00,
  0x20, 0x00, 0x00, 0x00, 0xe2, 0xfe, 0xff, 0xff, 0x00, 0x00, 0x00, 0x01,
  0x14, 0x00, 0x00, 0x00, 0x30, 0x00, 0x00, 0x00, 0x04, 0x00, 0x00, 0x00,
  0x00, 0x00, 0x00, 0x09, 0x3c, 0x00, 0x00, 0x00, 0xcc, 0xfe, 0xff, 0xff,
  0x08, 0x00, 0x00, 0x00, 0x10, 0x00, 0x00, 0x00, 0x01, 0x00, 0x00, 0x00,
  0x00, 0x00, 0x00, 0x00, 0x00, 0x00, 0x00, 0x00, 0x01, 0x00, 0x00, 0x00,
  0x1f, 0x70, 0xda, 0x3b, 0x12, 0x00, 0x00, 0x00, 0x6d, 0x6f, 0x64, 0x65,
  0x6c, 0x2f, 0x64, 0x65, 0x6e, 0x73, 0x65, 0x2f, 0x4d, 0x61, 0x74, 0x4d,
  0x75, 0x6c, 0x00, 0x00, 0x02, 0x00, 0x00, 0x00, 0x0a, 0x00, 0x00, 0x00,
  0x00, 0x02, 0x00, 0x00, 0x42, 0xff, 0xff, 0xff, 0x00, 0x00, 0x00, 0x01,
  0x14, 0x00, 0x00, 0x00, 0x34, 0x00, 0x00, 0x00, 0x03, 0x00, 0x00, 0x00,
  0x00, 0x00, 0x00, 0x02, 0x58, 0x00, 0x00, 0x00, 0x2c, 0xff, 0xff, 0xff,
  0x08, 0x00, 0x00, 0x00, 0x14, 0x00, 0x00, 0x00, 0x01, 0x00, 0x00, 0x00,
  0x00, 0x00, 0x00, 0x00, 0x00, 0x00, 0x00, 0x00, 0x00, 0x00, 0x00, 0x00,
  0x01, 0x00, 0x00, 0x00, 0x81, 0x2e, 0x9c, 0x3a, 0x2b, 0x00, 0x00, 0x00,
  0x6d, 0x6f, 0x64, 0x65, 0x6c, 0x2f, 0x64, 0x65, 0x6e, 0x73, 0x65, 0x2f,
  0x42, 0x69, 0x61, 0x73, 0x41, 0x64, 0x64, 0x2f, 0x52, 0x65, 0x61, 0x64,
  0x56, 0x61, 0x72, 0x69, 0x61, 0x62, 0x6c, 0x65, 0x4f, 0x70, 0x2f, 0x72,
  0x65, 0x73, 0x6f, 0x75, 0x72, 0x63, 0x65, 0x00, 0x01, 0x00, 0x00, 0x00,
  0x0a, 0x00, 0x00, 0x00, 0xba, 0xff, 0xff, 0xff, 0x00, 0x00, 0x00, 0x01,
  0x18, 0x00, 0x00, 0x00, 0x18, 0x00, 0x00, 0x00, 0x02, 0x00, 0x00, 0x00,
  0x00, 0x00, 0x00, 0x02, 0x24, 0x00, 0x00, 0x00, 0x04, 0x00, 0x04, 0x00,
  0x04, 0x00, 0x00, 0x00, 0x13, 0x00, 0x00, 0x00, 0x6d, 0x6f, 0x64, 0x65,
  0x6c, 0x2f, 0x66, 0x6c, 0x61, 0x74, 0x74, 0x65, 0x6e, 0x2f, 0x43, 0x6f,
  0x6e, 0x73, 0x74, 0x00, 0x01, 0x00, 0x00, 0x00, 0x02, 0x00, 0x00, 0x00,
  0x00, 0x00, 0x16, 0x00, 0x1c, 0x00, 0x18, 0x00, 0x17, 0x00, 0x10, 0x00,
  0x0c, 0x00, 0x08, 0x00, 0x00, 0x00, 0x00, 0x00, 0x00, 0x00, 0x07, 0x00,
  0x16, 0x00, 0x00, 0x00, 0x00, 0x00, 0x00, 0x01, 0x20, 0x00, 0x00, 0x00,
  0x40, 0x00, 0x00, 0x00, 0x01, 0x00, 0x00, 0x00, 0x00, 0x00, 0x00, 0x09,
  0x3c, 0x00, 0x00, 0x00, 0x0c, 0x00, 0x0c, 0x00, 0x00, 0x00, 0x00, 0x00,
  0x08, 0x00, 0x04, 0x00, 0x0c, 0x00, 0x00, 0x00, 0x08, 0x00, 0x00, 0x00,
  0x14, 0x00, 0x00, 0x00, 0x01, 0x00, 0x00, 0x00, 0x80, 0xff, 0xff, 0xff,
  0xff, 0xff, 0xff, 0xff, 0x00, 0x00, 0x00, 0x00, 0x01, 0x00, 0x00, 0x00,
  0x00, 0x00, 0x80, 0x3f, 0x01, 0x00, 0x00, 0x00, 0x78, 0x00, 0x00, 0x00,
  0x04, 0x00, 0x00, 0x00, 0x01, 0x00, 0x00, 0x00, 0x20, 0x00, 0x00, 0x00,
  0x20, 0x00, 0x00, 0x00, 0x03, 0x00, 0x00, 0x00, 0x04, 0x00, 0x00, 0x00,
  0x54, 0x00, 0x00, 0x00, 0x38, 0x00, 0x00, 0x00, 0x18, 0x00, 0x00, 0x00,
  0x04, 0x00, 0x00, 0x00, 0xc8, 0xff, 0xff, 0xff, 0x19, 0x00, 0x00, 0x00,
  0x02, 0x00, 0x00, 0x00, 0x00, 0x00, 0x00, 0x19, 0xd8, 0xff, 0xff, 0xff,
  0x09, 0x00, 0x00, 0x00, 0x04, 0x00, 0x00, 0x00, 0x00, 0x00, 0x00, 0x09,
  0x0c, 0x00, 0x0c, 0x00, 0x0b, 0x00, 0x00, 0x00, 0x00, 0x00, 0x04, 0x00,
  0x0c, 0x00, 0x00, 0x00, 0x16, 0x00, 0x00, 0x00, 0x00, 0x00, 0x00, 0x16,
  0x0c, 0x00, 0x10, 0x00, 0x0f, 0x00, 0x00, 0x00, 0x08, 0x00, 0x04, 0x00,
  0x0c, 0x00, 0x00, 0x00, 0x03, 0x00, 0x00, 0x00, 0x03, 0x00, 0x00, 0x00,
  0x00, 0x00, 0x00, 0x03
};
unsigned int quantized_model_tfl_len = 15928;
